{
  "version": "1.0",
  "truncation": null,
  "padding": null,
  "added_tokens": [],
  "normalizer": null,
  "pre_tokenizer": {
    "type": "WhitespaceSplit"
  },
  "post_processor": {
    "type": "TemplateProcessing",
    "single": [
      {
        "SpecialToken": {
          "id": "<s>",
          "type_id": 0
        }
      },
      {
        "Sequence": {
          "id": "A",
          "type_id": 0
        }
      },
      {
        "SpecialToken": {
          "id": "</s>",
          "type_id": 0
        }
      }
    ],
    "pair": [
      {
        "SpecialToken": {
          "id": "<s>",
          "type_id": 0
        }
      },
      {
        "Sequence": {
          "id": "A",
          "type_id": 0
        }
      },
      {
        "SpecialToken": {
          "id": "</s>",
          "type_id": 0
        }
      },
      {
        "SpecialToken": {
          "id": "</s>",
          "type_id": 0
        }
      },
      {
        "Sequence": {
          "id": "B",
          "type_id": 0
        }
      },
      {
        "SpecialToken": {
          "id": "</s>",
          "type_id": 0
        }
      }
    ],
    "special_tokens": {
      "</s>": {
        "id": "</s>",
        "ids": [
          2
        ],
        "tokens": [
          "</s>"
        ]
      },
      "<s>": {
        "id": "<s>",
        "ids": [
          0
        ],
        "tokens": [
          "<s>"
        ]
      }
    }
  },
  "decoder": {
    "type": "BPEDecoder",
    "suffix": "</w>"
  },
  "model": {
    "type": "BPE",
    "dropout": null,
    "unk_token": "<unk>",
    "continuing_subword_prefix": null,
    "end_of_word_suffix": "</w>",
    "fuse_unk": false,
    "vocab": {
      "<s>": 0,
      "<pad>": 1,
      "</s>": 2,
      "<unk>": 3,
      ".</w>": 4,
      "@USER</w>": 5,
      "the</w>": 6,
      ",</w>": 7,
      "I</w>": 8,
      "to</w>": 9,
      "HTTPURL</w>": 10,
      "a</w>": 11,
      "!</w>": 12,
      "and</w>": 13,
      "you</w>": 14,
      "of</w>": 15,
      "in</w>": 16,
      "is</w>": 17,
      "it</w>": 18,
      "for</w>": 19,
      "'s</w>": 20,
      "?</w>": 21,
      ":</w>": 22,
      "my</w>": 23,
      "on</w>": 24,
      "that</w>": 25,
      "\"</w>": 26,
      "me</w>": 27,
      "...</w>": 28,
      "n't</w>": 29,
      "with</w>": 30,
      "be</w>": 31,
      "do</w>": 32,
      "this</w>": 33,
      "-</w>": 34,
      "at</w>": 35,
      "have</w>": 36,
      "i</w>": 37,
      "was</w>": 38,
      "so</w>": 39,
      "'m</w>": 40,
      "are</w>": 41,
      "but</w>": 42,
      "like</w>": 43,
      "your</w>": 44,
      "just</w>": 45,
      "not</w>": 46,
      "The</w>": 47,
      "all</w>": 48,
      "up</w>": 49,
      "out</w>": 50,
      "get</w>": 51,
      "as</w>": 52,
      "from</w>": 53,
      "we</w>": 54,
      "&</w>": 55,
      "can</w>": 56,
      "(</w>": 57,
      "he</w>": 58,
      "they</w>": 59,
      ")</w>": 60,
      "by</w>": 61,
      "about</w>": 62,
      "one</w>": 63,
      "when</w>": 64,
      "if</w>": 65,
      "what</w>": 66,
      "..</w>": 67,
      "know</w>": 68,
      "'</w>": 69,
      "will</w>": 70,
      "love</w>": 71,
      "or</w>": 72,
      "You</w>": 73,
      "an</w>": 74,
      "/</w>": 75,
      "It</w>": 76,
      "now</w>": 77,
      "time</w>": 78,
      "u</w>": 79,
      "no</w>": 80,
      "'re</w>": 81,
      "go</w>": 82,
      "people</w>": 83,
      "how</w>": 84,
      "#": 85,
      "would</w>": 86,
      "who</w>": 87,
      ":face_with_tears_of_joy:</w>": 88,
      "more</w>": 89,
      "has</w>": 90,
      "his</w>": 91,
      "her</w>": 92,
      "day</w>": 93,
      "good</w>": 94,
      "see</w>": 95,
      "want</w>": 96,
      "she</w>": 97,
      "“</w>": 98,
      "there</w>": 99,
      "got</w>": 100,
      "think</w>": 101,
      "”</w>": 102,
      "did</w>": 103,
      "A</w>": 104,
      "lol</w>": 105,
      "them</w>": 106,
      "back</w>": 107,
      "been</w>": 108,
      "some</w>": 109,
      "*</w>": 110,
      "too</w>": 111,
      "much</w>": 112,
      "'ll</w>": 113,
      "need</w>": 114,
      "make</w>": 115,
      "really</w>": 116,
      "going</w>": 117,
      "had</w>": 118,
      "2</w>": 119,
      "'ve</w>": 120,
      "only</w>": 121,
      "My</w>": 122,
      "our</w>": 123,
      "him</w>": 124,
      "If</w>": 125,
      "This</w>": 126,
      "new</w>": 127,
      "today</w>": 128,
      "can't</w>": 129,
      "their</w>": 130,
      "…</w>": 131,
      "even</w>": 132,
      "then</w>": 133,
      "We</w>": 134,
      "still</w>": 135,
      "right</w>": 136,
      "here</w>": 137,
      "life</w>": 138,
      "its</w>": 139,
      "say</w>": 140,
      "over</w>": 141,
      "off</w>": 142,
      "never</w>": 143,
      "$</w>": 144,
      "shit</w>": 145,
      "why</w>": 146,
      "were</w>": 147,
      "us</w>": 148,
      "than</w>": 149,
      ":)</w>": 150,
      "should</w>": 151,
      "could</w>": 152,
      "because</w>": 153,
      "way</w>": 154,
      "am</w>": 155,
      "via</w>": 156,
      "work</w>": 157,
      "does</w>": 158,
      "And</w>": 159,
      "first</w>": 160,
      "best</w>": 161,
      "He</w>": 162,
      "3</w>": 163,
      "always</w>": 164,
      "What</w>": 165,
      "being</w>": 166,
      "1</w>": 167,
      "That</w>": 168,
      "take</w>": 169,
      "follow</w>": 170,
      "man</w>": 171,
      "Do</w>": 172,
      "In</w>": 173,
      "feel</w>": 174,
      "last</w>": 175,
      "come</w>": 176,
      "after</w>": 177,
      "better</w>": 178,
      "ever</w>": 179,
      "So</w>": 180,
      "down</w>": 181,
      "well</w>": 182,
      "please</w>": 183,
      "look</w>": 184,
      "other</w>": 185,
      "''</w>": 186,
      "into</w>": 187,
      "someone</w>": 188,
      "year</w>": 189,
      "``</w>": 190,
      "night</w>": 191,
      "But</w>": 192,
      "said</w>": 193,
      "gonna</w>": 194,
      "thing</w>": 195,
      "Just</w>": 196,
      "let</w>": 197,
      "these</w>": 198,
      "im</w>": 199,
      "great</w>": 200,
      "something</w>": 201,
      "video</w>": 202,
      "How</w>": 203,
      "4</w>": 204,
      "When</w>": 205,
      "again</w>": 206,
      "any</w>": 207,
      ";</w>": 208,
      "where</w>": 209,
      "New</w>": 210,
      "5</w>": 211,
      "game</w>": 212,
      "before</w>": 213,
      "made</w>": 214,
      "girl</w>": 215,
      "|</w>": 216,
      "next</w>": 217,
      "No</w>": 218,
      "home</w>": 219,
      "world</w>": 220,
      "%</w>": 221,
      "same</w>": 222,
      "week</w>": 223,
      "'d</w>": 224,
      "happy</w>": 225,
      "most</w>": 226,
      "bad</w>": 227,
      "give</w>": 228,
      "wanna</w>": 229,
      "school</w>": 230,
      "-": 231,
      "fuck</w>": 232,
      "things</w>": 233,
      "every</w>": 234,
      "getting</w>": 235,
      "They</w>": 236,
      "also</w>": 237,
      "tell</w>": 238,
      "many</w>": 239,
      "hope</w>": 240,
      "></w>": 241,
      "To</w>": 242,
      "-LRB-</w>": 243,
      "-RRB-</w>": 244,
      "ass</w>": 245,
      "RT</w>": 246,
      ":loudly_crying_face:</w>": 247,
      "which</w>": 248,
      "very</w>": 249,
      "Why</w>": 250,
      "10</w>": 251,
      "doing</w>": 252,
      "hate</w>": 253,
      "years</w>": 254,
      "two</w>": 255,
      "s</w>": 256,
      "wait</w>": 257,
      "show</w>": 258,
      "find</w>": 259,
      "sure</w>": 260,
      "long</w>": 261,
      "days</w>": 262,
      "little</w>": 263,
      "keep</w>": 264,
      "watch</w>": 265,
      "tomorrow</w>": 266,
      "—</w>": 267,
      "those</w>": 268,
      "stop</w>": 269,
      "done</w>": 270,
      "mean</w>": 271,
      "help</w>": 272,
      "THE</w>": 273,
      "friends</w>": 274,
      "play</w>": 275,
      "put</w>": 276,
      "YOU</w>": 277,
      "She</w>": 278,
      "tonight</w>": 279,
      ":red_heart:</w>": 280,
      "Is</w>": 281,
      "person</w>": 282,
      "real</w>": 283,
      "around</w>": 284,
      "everyone</w>": 285,
      "talk</w>": 286,
      "For</w>": 287,
      "n</w>": 288,
      "old</w>": 289,
      "while</w>": 290,
      "actually</w>": 291,
      "through</w>": 292,
      "w</w>": 293,
      "live</w>": 294,
      "[</w>": 295,
      "guys</w>": 296,
      "start</w>": 297,
      "though</w>": 298,
      "Now</w>": 299,
      "away</w>": 300,
      "hard</w>": 301,
      "U</w>": 302,
      "dont</w>": 303,
      "everything</w>": 304,
      "sleep</w>": 305,
      "already</w>": 306,
      "thought</w>": 307,
      "All</w>": 308,
      "fucking</w>": 309,
      "use</w>": 310,
      "cause</w>": 311,
      "big</w>": 312,
      "haha</w>": 313,
      "x</w>": 314,
      "ur</w>": 315,
      "tweet</w>": 316,
      "]</w>": 317,
      "lot</w>": 318,
      "Not</w>": 319,
      "ya</w>": 320,
      "makes</w>": 321,
      "o</w>": 322,
      "miss</w>": 323,
      "since</w>": 324,
      "money</w>": 325,
      "There</w>": 326,
      "A": 327,
      "end</w>": 328,
      "call</w>": 329,
      "name</w>": 330,
      "own</w>": 331,
      "Me</w>": 332,
      "try</w>": 333,
      "trying</w>": 334,
      "+</w>": 335,
      "free</w>": 336,
      "anything</w>": 337,
      "Lol</w>": 338,
      "6</w>": 339,
      "morning</w>": 340,
      "’</w>": 341,
      "Your</w>": 342,
      "phone</w>": 343,
      "having</w>": 344,
      "Love</w>": 345,
      "team</w>": 346,
      "another</w>": 347,
      "On</w>": 348,
      "nothing</w>": 349,
      "until</w>": 350,
      "God</w>": 351,
      "friend</w>": 352,
      "wish</w>": 353,
      "win</w>": 354,
      ":(</w>": 355,
      "care</w>": 356,
      "looking</w>": 357,
      "Please</w>": 358,
      "oh</w>": 359,
      "myself</w>": 360,
      "TO</w>": 361,
      "song</w>": 362,
      "face</w>": 363,
      "house</w>": 364,
      "One</w>": 365,
      "<3</w>": 366,
      "such</w>": 367,
      "K": 368,
      "won't</w>": 369,
      "nice</w>": 370,
      "read</w>": 371,
      "used</w>": 372,
      "ME</w>": 373,
      "girls</w>": 374,
      "yeah</w>": 375,
      "believe</w>": 376,
      "baby</w>": 377,
      "head</w>": 378,
      "guy</w>": 379,
      "7</w>": 380,
      "S": 381,
      "making</w>": 382,
      "family</w>": 383,
      "without</w>": 384,
      "Oh</w>": 385,
      "may</w>": 386,
      "coming</w>": 387,
      "Get</w>": 388,
      "music</w>": 389,
      ":smiling_face_with_heart-eyes:</w>": 390,
      "yet</w>": 391,
      "left</w>": 392,
      "pretty</w>": 393,
      "Trump</w>": 394,
      "fun</w>": 395,
      "Thank</w>": 396,
      "bitch</w>": 397,
      "heart</w>": 398,
      "birthday</w>": 399,
      "anyone</w>": 400,
      "talking</w>": 401,
      "S</w>": 402,
      "might</w>": 403,
      "Thanks</w>": 404,
      "~</w>": 405,
      "watching</w>": 406,
      "soon</w>": 407,
      "seen</w>": 408,
      "k": 409,
      "mind</w>": 410,
      "part</w>": 411,
      "AND</w>": 412,
      "ain't</w>": 413,
      "T": 414,
      "wrong</w>": 415,
      "amazing</w>": 416,
      "Good</w>": 417,
      "P": 418,
      "thank</w>": 419,
      "B": 420,
      "mom</w>": 421,
      "says</w>": 422,
      "s": 423,
      "bed</w>": 424,
      "both</w>": 425,
      "times</w>": 426,
      "Can</w>": 427,
      "enough</w>": 428,
      "D": 429,
      "place</w>": 430,
      "change</w>": 431,
      "thanks</w>": 432,
      "few</w>": 433,
      "whole</w>": 434,
      "else</w>": 435,
      "went</w>": 436,
      "hair</w>": 437,
      "20</w>": 438,
      "un": 439,
      "8</w>": 440,
      "told</w>": 441,
      "G": 442,
      "Day</w>": 443,
      "playing</w>": 444,
      "must</w>": 445,
      "saying</w>": 446,
      "Have</w>": 447,
      "looks</w>": 448,
      "Who</w>": 449,
      "N": 450,
      "12</w>": 451,
      "twitter</w>": 452,
      "ask</w>": 453,
      "Like</w>": 454,
      "M": 455,
      "tho</w>": 456,
      "job</w>": 457,
      "With</w>": 458,
      "season</w>": 459,
      "y": 460,
      "lmao</w>": 461,
      "sorry</w>": 462,
      "nigga</w>": 463,
      "beautiful</w>": 464,
      "#</w>": 465,
      "Happy</w>": 466,
      "MY</w>": 467,
      "stay</w>": 468,
      "y</w>": 469,
      "ready</w>": 470,
      "E": 471,
      "C": 472,
      "hear</w>": 473,
      "liked</w>": 474,
      "b</w>": 475,
      "Let</w>": 476,
      "remember</w>": 477,
      "true</w>": 478,
      "point</w>": 479,
      "against</w>": 480,
      "yes</w>": 481,
      "gotta</w>": 482,
      "class</w>": 483,
      "probably</w>": 484,
      "high</w>": 485,
      "leave</w>": 486,
      "Check</w>": 487,
      "called</w>": 488,
      "far</w>": 489,
      "Of</w>": 490,
      ":weary_face:</w>": 491,
      "cute</w>": 492,
      "hours</w>": 493,
      "car</w>": 494,
      "gone</w>": 495,
      "IS</w>": 496,
      "r</w>": 497,
      "O": 498,
      "C</w>": 499,
      "damn</w>": 500,
      "cool</w>": 501,
      "As</w>": 502,
      "able</w>": 503,
      "m</w>": 504,
      "gets</w>": 505,
      "Well</w>": 506,
      "re": 507,
      "ok</w>": 508,
      "weekend</w>": 509,
      "i": 510,
      "saw</w>": 511,
      "hit</w>": 512,
      "F": 513,
      "funny</w>": 514,
      "e": 515,
      "found</w>": 516,
      ";)</w>": 517,
      ":smiling_face_with_smiling_eyes:</w>": 518,
      "SO</w>": 519,
      "in": 520,
      "R": 521,
      "Ca</w>": 522,
      "top</w>": 523,
      "_": 524,
      "L": 525,
      "together</w>": 526,
      "a": 527,
      "food</w>": 528,
      "boy</w>": 529,
      "US</w>": 530,
      "eat</w>": 531,
      "15</w>": 532,
      "Are</w>": 533,
      "–</w>": 534,
      "run</w>": 535,
      "k</w>": 536,
      "yourself</w>": 537,
      "least</w>": 538,
      "W": 539,
      "9</w>": 540,
      "d": 541,
      "okay</w>": 542,
      "t": 543,
      "H": 544,
      "I": 545,
      "At</w>": 546,
      "full</w>": 547,
      "party</w>": 548,
      "buy</w>": 549,
      "100</w>": 550,
      "room</w>": 551,
      "t</w>": 552,
      "guess</w>": 553,
      "needs</w>": 554,
      "came</w>": 555,
      "once</w>": 556,
      "sex</w>": 557,
      "working</w>": 558,
      "understand</w>": 559,
      "check</w>": 560,
      "IT</w>": 561,
      "Twitter</w>": 562,
      "<</w>": 563,
      "support</w>": 564,
      "women</w>": 565,
      "movie</w>": 566,
      "4": 567,
      "reason</w>": 568,
      "Im</w>": 569,
      "stuff</w>": 570,
      "maybe</w>": 571,
      "during</w>": 572,
      "sad</w>": 573,
      "side</w>": 574,
      "O</w>": 575,
      "each</w>": 576,
      "x": 577,
      "kids</w>": 578,
      "post</w>": 579,
      "between</w>": 580,
      "p": 581,
      "early</w>": 582,
      "black</w>": 583,
      "feeling</w>": 584,
      "ago</w>": 585,
      "hot</w>": 586,
      "^</w>": 587,
      "wanted</w>": 588,
      "different</w>": 589,
      "lost</w>": 590,
      "c</w>": 591,
      "m": 592,
      "under</w>": 593,
      "IN</w>": 594,
      "thinking</w>": 595,
      ":unamused_face:</w>": 596,
      "30</w>": 597,
      "took</w>": 598,
      "wants</w>": 599,
      "book</w>": 600,
      "hell</w>": 601,
      "taking</w>": 602,
      "People</w>": 603,
      ":D</w>": 604,
      "bc</w>": 605,
      "later</w>": 606,
      "b": 607,
      "n": 608,
      ":heart_suit:</w>": 609,
      "set</w>": 610,
      "J": 611,
      "=</w>": 612,
      "bit</w>": 613,
      "d</w>": 614,
      "news</w>": 615,
      "favorite</w>": 616,
      "Hey</w>": 617,
      "white</w>": 618,
      "News</w>": 619,
      "11</w>": 620,
      "crazy</w>": 621,
      "Hi</w>": 622,
      "mad</w>": 623,
      "Y": 624,
      "half</w>": 625,
      "Be</w>": 626,
      "others</w>": 627,
      "story</w>": 628,
      "less</w>": 629,
      "g": 630,
      "‘</w>": 631,
      "comes</w>": 632,
      "B</w>": 633,
      "open</w>": 634,
      "text</w>": 635,
      "second</w>": 636,
      "started</w>": 637,
      "al": 638,
      ".": 639,
      "Its</w>": 640,
      "o": 641,
      "late</w>": 642,
      "Today</w>": 643,
      "number</w>": 644,
      "country</w>": 645,
      "18</w>": 646,
      "D</w>": 647,
      "past</w>": 648,
      "cant</w>": 649,
      "h": 650,
      "line</w>": 651,
      "heard</w>": 652,
      "kind</w>": 653,
      "5": 654,
      "Here</w>": 655,
      "men</w>": 656,
      "de</w>": 657,
      "yo</w>": 658,
      "50</w>": 659,
      "goes</w>": 660,
      "6": 661,
      "V": 662,
      ":two_hearts:</w>": 663,
      "THIS</w>": 664,
      "M</w>": 665,
      "en": 666,
      "Great</w>": 667,
      "die</w>": 668,
      "literally</w>": 669,
      "Black</w>": 670,
      "eyes</w>": 671,
      "7": 672,
      "19</w>": 673,
      "2": 674,
      "excited</w>": 675,
      "following</w>": 676,
      "games</w>": 677,
      "Go</w>": 678,
      "perfect</w>": 679,
      "World</w>": 680,
      "meet</w>": 681,
      "z</w>": 682,
      "almost</w>": 683,
      "U": 684,
      "z": 685,
      "j": 686,
      "F</w>": 687,
      "dad</w>": 688,
      "Did</w>": 689,
      "album</w>": 690,
      "break</w>": 691,
      "hour</w>": 692,
      "moment</w>": 693,
      "bring</w>": 694,
      "anymore</w>": 695,
      "tweets</w>": 696,
      "god</w>": 697,
      "3": 698,
      "Yes</w>": 699,
      "13</w>": 700,
      "er</w>": 701,
      "move</w>": 702,
      "es</w>": 703,
      "matter</w>": 704,
      "son</w>": 705,
      "turn</w>": 706,
      "idea</w>": 707,
      "May</w>": 708,
      "means</w>": 709,
      "AM</w>": 710,
      "Time</w>": 711,
      "#S": 712,
      "u": 713,
      "g</w>": 714,
      "c": 715,
      "body</w>": 716,
      "v": 717,
      "16</w>": 718,
      "fans</w>": 719,
      "pay</w>": 720,
      "happen</w>": 721,
      ":face_blowing_a_kiss:</w>": 722,
      "2016</w>": 723,
      "w": 724,
      "an": 725,
      "Some</w>": 726,
      "waiting</w>": 727,
      "stupid</w>": 728,
      "After</w>": 729,
      "T</w>": 730,
      "words</w>": 731,
      "p</w>": 732,
      "fact</w>": 733,
      "fan</w>": 734,
      "fall</w>": 735,
      "bout</w>": 736,
      "LOVE</w>": 737,
      "f": 738,
      "either</w>": 739,
      "See</w>": 740,
      "single</w>": 741,
      "awesome</w>": 742,
      "close</w>": 743,
      "omg</w>": 744,
      "Friday</w>": 745,
      "boys</w>": 746,
      "Best</w>": 747,
      "9": 748,
      "OF</w>": 749,
      "woman</w>": 750,
      "PM</w>": 751,
      "listen</w>": 752,
      "2015</w>": 753,
      "minutes</w>": 754,
      "word</w>": 755,
      "forget</w>": 756,
      "tired</w>": 757,
      "using</w>": 758,
      "vote</w>": 759,
      "ate</w>": 760,
      "American</w>": 761,
      "ppl</w>": 762,
      "business</w>": 763,
      "Will</w>": 764,
      "rest</w>": 765,
      "Only</w>": 766,
      "Z": 767,
      "smile</w>": 768,
      "three</w>": 769,
      "da</w>": 770,
      "8": 771,
      "er": 772,
      "picture</w>": 773,
      "summer</w>": 774,
      "L</w>": 775,
      "ing</w>": 776,
      "X</w>": 777,
      "Man</w>": 778,
      "dream</w>": 779,
      "mine</w>": 780,
      "_</w>": 781,
      "14</w>": 782,
      "es": 783,
      "ones</w>": 784,
      "problem</w>": 785,
      "send</w>": 786,
      "followers</w>": 787,
      "ON</w>": 788,
      "alone</w>": 789,
      "From</w>": 790,
      "water</w>": 791,
      "added</w>": 792,
      "worth</w>": 793,
      "K</w>": 794,
      "month</w>": 795,
      "R</w>": 796,
      "More</w>": 797,
      "h</w>": 798,
      "Yeah</w>": 799,
      "ed</w>": 800,
      "y'all</w>": 801,
      "chance</w>": 802,
      "hand</w>": 803,
      "fight</w>": 804,
      "ers</w>": 805,
      "ar": 806,
      "on": 807,
      "vs</w>": 808,
      "v</w>": 809,
      "deal</w>": 810,
      "bro</w>": 811,
      "25</w>": 812,
      "finally</w>": 813,
      "seeing</w>": 814,
      "proud</w>": 815,
      "ill</w>": 816,
      "Christmas</w>": 817,
      "en</w>": 818,
      "Life</w>": 819,
      ":OK_hand:</w>": 820,
      "sick</w>": 821,
      "N</w>": 822,
      "brother</w>": 823,
      "beat</w>": 824,
      "weeks</w>": 825,
      "hey</w>": 826,
      "17</w>": 827,
      "months</w>": 828,
      "FOR</w>": 829,
      "Our</w>": 830,
      "City</w>": 831,
      "instead</w>": 832,
      "walk</w>": 833,
      "played</w>": 834,
      "th": 835,
      "l": 836,
      "P</w>": 837,
      ":beaming_face_with_smiling_eyes:</w>": 838,
      "dead</w>": 839,
      "won</w>": 840,
      "account</w>": 841,
      "till</w>": 842,
      "age</w>": 843,
      "Hope</w>": 844,
      "power</w>": 845,
      "niggas</w>": 846,
      "First</w>": 847,
      "em</w>": 848,
      "fine</w>": 849,
      "NOT</w>": 850,
      "ha</w>": 851,
      "state</w>": 852,
      "e</w>": 853,
      "These</w>": 854,
      "r": 855,
      "ing": 856,
      "Up</w>": 857,
      "asked</w>": 858,
      "young</w>": 859,
      "hi</w>": 860,
      "case</w>": 861,
      "city</w>": 862,
      "knew</w>": 863,
      "X": 864,
      "future</w>": 865,
      "cry</w>": 866,
      "gave</w>": 867,
      "course</w>": 868,
      "dude</w>": 869,
      "become</w>": 870,
      ":smiling_face:</w>": 871,
      "hahaha</w>": 872,
      "yesterday</w>": 873,
      "pic</w>": 874,
      "TV</w>": 875,
      "giving</w>": 876,
      "G</w>": 877,
      "His</w>": 878,
      "ma": 879,
      "na</w>": 880,
      "In": 881,
      "l</w>": 882,
      "group</w>": 883,
      "PLEASE</w>": 884,
      "America</w>": 885,
      "idk</w>": 886,
      "hurt</w>": 887,
      "24</w>": 888,
      "E</w>": 889,
      "wonder</w>": 890,
      "Come</w>": 891,
      "Or</w>": 892,
      "dog</w>": 893,
      "FOLLOW</w>": 894,
      "0</w>": 895,
      "important</w>": 896,
      "kill</w>": 897,
      "sister</w>": 898,
      "online</w>": 899,
      "list</w>": 900,
      "wear</w>": 901,
      "LOL</w>": 902,
      "glad</w>": 903,
      "question</w>": 904,
      "):</w>": 905,
      "--</w>": 906,
      "forever</w>": 907,
      ":pensive_face:</w>": 908,
      "xx</w>": 909,
      ":/</w>": 910,
      "happened</w>": 911,
      "knows</w>": 912,
      "forward</w>": 913,
      "learn</w>": 914,
      "small</w>": 915,
      "behind</w>": 916,
      "weird</w>": 917,
      "Never</w>": 918,
      "media</w>": 919,
      "cuz</w>": 920,
      "Follow</w>": 921,
      "UK</w>": 922,
      "lose</w>": 923,
      "is": 924,
      "thats</w>": 925,
      "Video</w>": 926,
      "United</w>": 927,
      "Got</w>": 928,
      "outside</w>": 929,
      "10": 930,
      "cut</w>": 931,
      "lie</w>": 932,
      ":folded_hands:</w>": 933,
      "link</w>": 934,
      "By</w>": 935,
      "order</w>": 936,
      "light</w>": 937,
      "sometimes</w>": 938,
      "seriously</w>": 939,
      "£</w>": 940,
      "White</w>": 941,
      "Big</w>": 942,
      "living</w>": 943,
      "(:</w>": 944,
      "parents</w>": 945,
      "Watch</w>": 946,
      "rather</w>": 947,
      "1st</w>": 948,
      "#B": 949,
      "Free</w>": 950,
      "act</w>": 951,
      "f</w>": 952,
      "ha": 953,
      "John</w>": 954,
      "hold</w>": 955,
      "takes</w>": 956,
      "W</w>": 957,
      "IM</w>": 958,
      "Where</w>": 959,
      "wake</w>": 960,
      "football</w>": 961,
      "running</w>": 962,
      "Haha</w>": 963,
      "21</w>": 964,
      "worst</w>": 965,
      "tried</w>": 966,
      "swear</w>": 967,
      "kid</w>": 968,
      "to": 969,
      "Sunday</w>": 970,
      "40</w>": 971,
      "2014</w>": 972,
      "Maybe</w>": 973,
      "date</w>": 974,
      "♡</w>": 975,
      "town</w>": 976,
      "voice</w>": 977,
      "ah</w>": 978,
      "pick</w>": 979,
      "li": 980,
      "easy</w>": 981,
      "enjoy</w>": 982,
      "death</w>": 983,
      "Weather</w>": 984,
      "special</w>": 985,
      "stand</w>": 986,
      "it": 987,
      "smh</w>": 988,
      "front</w>": 989,
      "cold</w>": 990,
      "share</w>": 991,
      "couple</w>": 992,
      "NO</w>": 993,
      "children</w>": 994,
      "#C": 995,
      "ch": 996,
      "ALL</w>": 997,
      "Saturday</w>": 998,
      "fire</w>": 999,
      "Facebook</w>": 1000,
      "sh": 1001,
      "luck</w>": 1002,
      "Then</w>": 1003,
      "Fuck</w>": 1004,
      "sweet</w>": 1005,
      "due</w>": 1006,
      "red</w>": 1007,
      "2017</w>": 1008,
      "social</w>": 1009,
      "seems</w>": 1010,
      "type</w>": 1011,
      "Make</w>": 1012,
      "definitely</w>": 1013,
      "‍</w>": 1014,
      "shows</w>": 1015,
      "House</w>": 1016,
      "Top</w>": 1017,
      "or": 1018,
      "answer</w>": 1019,
      "lil</w>": 1020,
      "public</w>": 1021,
      ":smirking_face:</w>": 1022,
      "college</w>": 1023,
      "known</w>": 1024,
      "Live</w>": 1025,
      "kinda</w>": 1026,
      "service</w>": 1027,
      "plan</w>": 1028,
      "shot</w>": 1029,
      "listening</w>": 1030,
      "ts</w>": 1031,
      "1": 1032,
      "strong</w>": 1033,
      "pictures</w>": 1034,
      "al</w>": 1035,
      "Y</w>": 1036,
      "hands</w>": 1037,
      "Would</w>": 1038,
      "nobody</w>": 1039,
      "Even</w>": 1040,
      "along</w>": 1041,
      "H</w>": 1042,
      ":": 1043,
      "THAT</w>": 1044,
      "drive</w>": 1045,
      "2018</w>": 1046,
      "NEW</w>": 1047,
      "straight</w>": 1048,
      "series</w>": 1049,
      "Was</w>": 1050,
      "2013</w>": 1051,
      "child</w>": 1052,
      "fast</w>": 1053,
      "pls</w>": 1054,
      ":thumbs_up:</w>": 1055,
      "drink</w>": 1056,
      "laugh</w>": 1057,
      "Music</w>": 1058,
      "di": 1059,
      "Out</w>": 1060,
      "st": 1061,
      "sense</w>": 1062,
      "ma</w>": 1063,
      "songs</w>": 1064,
      "at": 1065,
      "ball</w>": 1066,
      "°</w>": 1067,
      "super</w>": 1068,
      "agree</w>": 1069,
      "feels</w>": 1070,
      "Obama</w>": 1071,
      "sound</w>": 1072,
      "President</w>": 1073,
      "State</w>": 1074,
      "join</w>": 1075,
      "million</w>": 1076,
      "Every</w>": 1077,
      ":-)</w>": 1078,
      "trust</w>": 1079,
      "reading</w>": 1080,
      "#T": 1081,
      "player</w>": 1082,
      "starting</w>": 1083,
      "level</w>": 1084,
      "Still</w>": 1085,
      "ation</w>": 1086,
      "short</w>": 1087,
      ":hundred_points:</w>": 1088,
      "Because</w>": 1089,
      "self</w>": 1090,
      "el": 1091,
      "York</w>": 1092,
      "loved</w>": 1093,
      "born</w>": 1094,
      "fake</w>": 1095,
      "works</w>": 1096,
      "Also</w>": 1097,
      "la": 1098,
      "film</w>": 1099,
      "ri": 1100,
      "low</w>": 1101,
      "wit</w>": 1102,
      "yours</w>": 1103,
      "Full</w>": 1104,
      "app</w>": 1105,
      "am": 1106,
      ":flushed_face:</w>": 1107,
      "sounds</w>": 1108,
      "Monday</w>": 1109,
      "ice</w>": 1110,
      "honestly</w>": 1111,
      "Wow</w>": 1112,
      "School</w>": 1113,
      "eating</w>": 1114,
      "OMG</w>": 1115,
      "page</w>": 1116,
      "available</w>": 1117,
      "de": 1118,
      "followed</w>": 1119,
      "watched</w>": 1120,
      "deserve</w>": 1121,
      "videos</w>": 1122,
      "22</w>": 1123,
      "Last</w>": 1124,
      "Take</w>": 1125,
      "2019</w>": 1126,
      "ra": 1127,
      "history</w>": 1128,
      "episode</w>": 1129,
      "missed</w>": 1130,
      "ro": 1131,
      "be": 1132,
      "save</w>": 1133,
      "le": 1134,
      "system</w>": 1135,
      "porn</w>": 1136,
      "met</w>": 1137,
      ":face_with_rolling_eyes:</w>": 1138,
      "club</w>": 1139,
      "telling</w>": 1140,
      "government</w>": 1141,
      "Really</w>": 1142,
      "lo": 1143,
      "sign</w>": 1144,
      "pass</w>": 1145,
      "human</w>": 1146,
      "South</w>": 1147,
      "relationship</w>": 1148,
      "area</w>": 1149,
      "aint</w>": 1150,
      "company</w>": 1151,
      ":raising_hands:</w>": 1152,
      "near</w>": 1153,
      "inside</w>": 1154,
      "weather</w>": 1155,
      "test</w>": 1156,
      "players</w>": 1157,
      "art</w>": 1158,
      "London</w>": 1159,
      "fucked</w>": 1160,
      "Does</w>": 1161,
      "0": 1162,
      "About</w>": 1163,
      "An</w>": 1164,
      "visit</w>": 1165,
      "bet</w>": 1166,
      "sit</w>": 1167,
      "sent</w>": 1168,
      "se": 1169,
      "Look</w>": 1170,
      "playlist</w>": 1171,
      "ly</w>": 1172,
      "truth</w>": 1173,
      "somebody</w>": 1174,
      "la</w>": 1175,
      "needed</w>": 1176,
      "Her</w>": 1177,
      "land</w>": 1178,
      "bitches</w>": 1179,
      "wow</w>": 1180,
      "realize</w>": 1181,
      "pain</w>": 1182,
      "possible</w>": 1183,
      "se</w>": 1184,
      "ka</w>": 1185,
      "as": 1186,
      "speak</w>": 1187,
      "dumb</w>": 1188,
      "photo</w>": 1189,
      "crying</w>": 1190,
      "problems</w>": 1191,
      "worry</w>": 1192,
      "pics</w>": 1193,
      "serious</w>": 1194,
      "happens</w>": 1195,
      "respect</w>": 1196,
      "loves</w>": 1197,
      "July</w>": 1198,
      "spend</w>": 1199,
      "Need</w>": 1200,
      "bought</w>": 1201,
      "ic": 1202,
      "taken</w>": 1203,
      "#P": 1204,
      "control</w>": 1205,
      "th</w>": 1206,
      "everyday</w>": 1207,
      "le</w>": 1208,
      "Re": 1209,
      "gay</w>": 1210,
      "#A": 1211,
      "Keep</w>": 1212,
      "asking</w>": 1213,
      "India</w>": 1214,
      "dis": 1215,
      "exactly</w>": 1216,
      "mother</w>": 1217,
      "NOW</w>": 1218,
      "wife</w>": 1219,
      "whatever</w>": 1220,
      "23</w>": 1221,
      "final</w>": 1222,
      "wearing</w>": 1223,
      "Sometimes</w>": 1224,
      "lead</w>": 1225,
      "ARE</w>": 1226,
      "worse</w>": 1227,
      "2nd</w>": 1228,
      "write</w>": 1229,
      "#M": 1230,
      "ab": 1231,
      "DO</w>": 1232,
      "Sorry</w>": 1233,
      "2012</w>": 1234,
      "king</w>": 1235,
      "Most</w>": 1236,
      "#D": 1237,
      "looked</w>": 1238,
      "office</w>": 1239,
      "ugly</w>": 1240,
      "BE</w>": 1241,
      "movies</w>": 1242,
      "dance</w>": 1243,
      "Back</w>": 1244,
      "joke</w>": 1245,
      "band</w>": 1246,
      "mouth</w>": 1247,
      "sing</w>": 1248,
      "April</w>": 1249,
      "ed": 1250,
      "The": 1251,
      "per</w>": 1252,
      "ti": 1253,
      "em": 1254,
      "seem</w>": 1255,
      "health</w>": 1256,
      "ta": 1257,
      "often</w>": 1258,
      "experience</w>": 1259,
      ":thinking_face:</w>": 1260,
      "To": 1261,
      "Everyone</w>": 1262,
      "war</w>": 1263,
      "catch</w>": 1264,
      "Justin</w>": 1265,
      "West</w>": 1266,
      "Stop</w>": 1267,
      "•</w>": 1268,
      "ated</w>": 1269,
      "changed</w>": 1270,
      "shut</w>": 1271,
      "RE": 1272,
      "DM</w>": 1273,
      "forgot</w>": 1274,
      "boyfriend</w>": 1275,
      "given</w>": 1276,
      ":medium_skin_tone:</w>": 1277,
      "event</w>": 1278,
      "door</w>": 1279,
      "dick</w>": 1280,
      "do": 1281,
      "March</w>": 1282,
      "High</w>": 1283,
      "air</w>": 1284,
      "English</w>": 1285,
      "J</w>": 1286,
      "ho": 1287,
      "road</w>": 1288,
      "tickets</w>": 1289,
      "AT</w>": 1290,
      "round</w>": 1291,
      "Un": 1292,
      "Home</w>": 1293,
      "killed</w>": 1294,
      "Women</w>": 1295,
      "bus</w>": 1296,
      "store</w>": 1297,
      "scared</w>": 1298,
      "lives</w>": 1299,
      "pm</w>": 1300,
      "#F": 1301,
      "broke</w>": 1302,
      "match</w>": 1303,
      "based</w>": 1304,
      "trip</w>": 1305,
      "including</w>": 1306,
      "attention</w>": 1307,
      "field</w>": 1308,
      "safe</w>": 1309,
      "fat</w>": 1310,
      "Another</w>": 1311,
      "the": 1312,
      "law</w>": 1313,
      "FREE</w>": 1314,
      ":light_skin_tone:</w>": 1315,
      "longer</w>": 1316,
      "Ma": 1317,
      "died</w>": 1318,
      "Lmao</w>": 1319,
      ":clapping_hands:</w>": 1320,
      "ft</w>": 1321,
      ":winking_face:</w>": 1322,
      "supposed</w>": 1323,
      "V</w>": 1324,
      "drop</w>": 1325,
      "local</w>": 1326,
      "annoying</w>": 1327,
      "paid</w>": 1328,
      "entire</w>": 1329,
      "re</w>": 1330,
      "June</w>": 1331,
      "tryna</w>": 1332,
      "Red</w>": 1333,
      "everybody</w>": 1334,
      "calling</w>": 1335,
      "te</w>": 1336,
      "USA</w>": 1337,
      "rt</w>": 1338,
      "National</w>": 1339,
      "ad": 1340,
      "North</w>": 1341,
      "points</w>": 1342,
      "students</w>": 1343,
      "piece</w>": 1344,
      "biggest</w>": 1345,
      "Al": 1346,
      "felt</w>": 1347,
      "ar</w>": 1348,
      "card</w>": 1349,
      "led</w>": 1350,
      "quite</w>": 1351,
      "photos</w>": 1352,
      "sexy</w>": 1353,
      "26</w>": 1354,
      "cover</w>": 1355,
      "co": 1356,
      "rain</w>": 1357,
      "yall</w>": 1358,
      "meant</w>": 1359,
      "UP</w>": 1360,
      "anyway</w>": 1361,
      "four</w>": 1362,
      "Someone</w>": 1363,
      "28</w>": 1364,
      "ima</w>": 1365,
      "ride</w>": 1366,
      "Game</w>": 1367,
      "finished</w>": 1368,
      "middle</w>": 1369,
      "il": 1370,
      "ting</w>": 1371,
      "star</w>": 1372,
      "Could</w>": 1373,
      "add</w>": 1374,
      "goal</w>": 1375,
      ":purple_heart:</w>": 1376,
      "#G": 1377,
      "Damn</w>": 1378,
      "27</w>": 1379,
      "Jesus</w>": 1380,
      "iPhone</w>": 1381,
      ":fire:</w>": 1382,
      "si": 1383,
      "bo": 1384,
      "wtf</w>": 1385,
      "Read</w>": 1386,
      "finish</w>": 1387,
      "minute</w>": 1388,
      "lady</w>": 1389,
      "gives</w>": 1390,
      "became</w>": 1391,
      "box</w>": 1392,
      "sitting</w>": 1393,
      "lovely</w>": 1394,
      "Apple</w>": 1395,
      "ac": 1396,
      "site</w>": 1397,
      "huge</w>": 1398,
      "YOUR</w>": 1399,
      "Girl</w>": 1400,
      "ee</w>": 1401,
      "issue</w>": 1402,
      "didnt</w>": 1403,
      "Should</w>": 1404,
      "latest</w>": 1405,
      "Show</w>": 1406,
      "cat</w>": 1407,
      "af</w>": 1408,
      "Party</w>": 1409,
      "Mar": 1410,
      ":grinning_face_with_sweat:</w>": 1411,
      "missing</w>": 1412,
      "Looking</w>": 1413,
      "starts</w>": 1414,
      "police</w>": 1415,
      "message</w>": 1416,
      "across</w>": 1417,
      "GO</w>": 1418,
      ":medium_light_skin_tone:</w>": 1419,
      "record</w>": 1420,
      "WE</w>": 1421,
      ":rolling_on_the_floor_laughing:</w>": 1422,
      "An": 1423,
      "Michael</w>": 1424,
      "JUST</w>": 1425,
      "poor</w>": 1426,
      "posted</w>": 1427,
      ":musical_notes:</w>": 1428,
      "and": 1429,
      "ways</w>": 1430,
      "Mo": 1431,
      "busy</w>": 1432,
      "drunk</w>": 1433,
      "dinner</w>": 1434,
      "eye</w>": 1435,
      "mate</w>": 1436,
      "throw</w>": 1437,
      "ko</w>": 1438,
      "Photo</w>": 1439,
      "ia</w>": 1440,
      "University</w>": 1441,
      "within</w>": 1442,
      "#W": 1443,
      "LIKE</w>": 1444,
      "Nothing</w>": 1445,
      "babe</w>": 1446,
      "James</w>": 1447,
      "asleep</w>": 1448,
      "main</w>": 1449,
      "Going</w>": 1450,
      "China</w>": 1451,
      "form</w>": 1452,
      "website</w>": 1453,
      "feelings</w>": 1454,
      "thinks</w>": 1455,
      "coronavirus</w>": 1456,
      "August</w>": 1457,
      "especially</w>": 1458,
      "questions</w>": 1459,
      "etc</w>": 1460,
      "Year</w>": 1461,
      "mood</w>": 1462,
      "step</w>": 1463,
      "De": 1464,
      "turned</w>": 1465,
      "ine</w>": 1466,
      "himself</w>": 1467,
      "im": 1468,
      "no": 1469,
      "fit</w>": 1470,
      "books</w>": 1471,
      "yea</w>": 1472,
      "Had</w>": 1473,
      "Mr</w>": 1474,
      "totally</w>": 1475,
      "bu": 1476,
      "coffee</w>": 1477,
      "Too</w>": 1478,
      "Real</w>": 1479,
      "Two</w>": 1480,
      "welcome</w>": 1481,
      "study</w>": 1482,
      "pussy</w>": 1483,
      "likes</w>": 1484,
      "blue</w>": 1485,
      "#N": 1486,
      "St</w>": 1487,
      "Right</w>": 1488,
      "expect</w>": 1489,
      "Want</w>": 1490,
      "version</w>": 1491,
      "ang</w>": 1492,
      "interesting</w>": 1493,
      "issues</w>": 1494,
      "email</w>": 1495,
      "mm</w>": 1496,
      "November</w>": 1497,
      "lets</w>": 1498,
      "key</w>": 1499,
      "Lord</w>": 1500,
      "lucky</w>": 1501,
      "60</w>": 1502,
      "space</w>": 1503,
      "om": 1504,
      "ec": 1505,
      "community</w>": 1506,
      "WHAT</w>": 1507,
      "walking</w>": 1508,
      "ba": 1509,
      "paper</w>": 1510,
      "lies</w>": 1511,
      "track</w>": 1512,
      "tv</w>": 1513,
      "17": 1514,
      "themselves</w>": 1515,
      "dreams</w>": 1516,
      "Ar": 1517,
      "absolutely</w>": 1518,
      "style</w>": 1519,
      "29</w>": 1520,
      "el</w>": 1521,
      "#K": 1522,
      "sa": 1523,
      "Birthday</w>": 1524,
      "go": 1525,
      "ating</w>": 1526,
      "WITH</w>": 1527,
      "gift</w>": 1528,
      "rn</w>": 1529,
      "90</w>": 1530,
      "members</w>": 1531,
      "writing</w>": 1532,
      "BUT</w>": 1533,
      "Star</w>": 1534,
      "ted</w>": 1535,
      "Park</w>": 1536,
      "ke</w>": 1537,
      "reply</w>": 1538,
      "Night</w>": 1539,
      "Sh": 1540,
      "leaving</w>": 1541,
      "12": 1542,
      "grow</w>": 1543,
      "action</w>": 1544,
      "attack</w>": 1545,
      "ONE</w>": 1546,
      "dress</w>": 1547,
      ":sparkling_heart:</w>": 1548,
      "released</w>": 1549,
      "sucks</w>": 1550,
      "King</w>": 1551,
      "Ha": 1552,
      "ley</w>": 1553,
      "Q": 1554,
      "usually</w>": 1555,
      "ur": 1556,
      "16": 1557,
      "blog</w>": 1558,
      "code</w>": 1559,
      "meeting</w>": 1560,
      "bored</w>": 1561,
      "truly</w>": 1562,
      ":medium_dark_skin_tone:</w>": 1563,
      "chat</w>": 1564,
      "ag": 1565,
      "dark</w>": 1566,
      "deep</w>": 1567,
      "choice</w>": 1568,
      "Baby</w>": 1569,
      "Car": 1570,
      "gym</w>": 1571,
      "Bo": 1572,
      "info</w>": 1573,
      "extra</w>": 1574,
      "tour</w>": 1575,
      "wonderful</w>": 1576,
      "Harry</w>": 1577,
      "mo": 1578,
      "fuckin</w>": 1579,
      "plans</w>": 1580,
      "woke</w>": 1581,
      "October</w>": 1582,
      "race</w>": 1583,
      "rock</w>": 1584,
      ":female_sign:</w>": 1585,
      "HAVE</w>": 1586,
      "ey</w>": 1587,
      "moving</w>": 1588,
      "States</w>": 1589,
      "for": 1590,
      "Ok</w>": 1591,
      "calls</w>": 1592,
      "David</w>": 1593,
      "completely</w>": 1594,
      "#R": 1595,
      "lots</w>": 1596,
      "Business</w>": 1597,
      "member</w>": 1598,
      "sun</w>": 1599,
      "quick</w>": 1600,
      "imagine</w>": 1601,
      "lunch</w>": 1602,
      "December</w>": 1603,
      "et</w>": 1604,
      "touch</w>": 1605,
      "project</w>": 1606,
      "notice</w>": 1607,
      "pe": 1608,
      "Google</w>": 1609,
      "Co": 1610,
      "building</w>": 1611,
      "tbh</w>": 1612,
      "ta</w>": 1613,
      "chill</w>": 1614,
      "Buy</w>": 1615,
      "shirt</w>": 1616,
      "ant</w>": 1617,
      "father</w>": 1618,
      "Radio</w>": 1619,
      "clean</w>": 1620,
      "appreciate</w>": 1621,
      "For": 1622,
      "tweeting</w>": 1623,
      "putting</w>": 1624,
      "concert</w>": 1625,
      "na": 1626,
      "bag</w>": 1627,
      "size</w>": 1628,
      "ton</w>": 1629,
      "five</w>": 1630,
      "id</w>": 1631,
      "Blue</w>": 1632,
      "wall</w>": 1633,
      "ahead</w>": 1634,
      "3rd</w>": 1635,
      "January</w>": 1636,
      "um</w>": 1637,
      "Thursday</w>": 1638,
      "named</w>": 1639,
      "15": 1640,
      "County</w>": 1641,
      ":P</w>": 1642,
      "character</w>": 1643,
      "Okay</w>": 1644,
      "release</w>": 1645,
      "con": 1646,
      "e-": 1647,
      "train</w>": 1648,
      "report</w>": 1649,
      "laughing</w>": 1650,
      ":skull:</w>": 1651,
      "president</w>": 1652,
      "ds</w>": 1653,
      "`</w>": 1654,
      "Join</w>": 1655,
      "sp": 1656,
      "September</w>": 1657,
      ":sparkles:</w>": 1658,
      "Hello</w>": 1659,
      "Channel</w>": 1660,
      "#The": 1661,
      "worked</w>": 1662,
      ":see-no-evil_monkey:</w>": 1663,
      "45</w>": 1664,
      "spent</w>": 1665,
      "clothes</w>": 1666,
      "stuck</w>": 1667,
      "km</w>": 1668,
      "continue</w>": 1669,
      "Always</w>": 1670,
      "Men</w>": 1671,
      ":victory_hand:</w>": 1672,
      "clear</w>": 1673,
      "ca": 1674,
      ":relieved_face:</w>": 1675,
      "driving</w>": 1676,
      "me": 1677,
      "sleeping</w>": 1678,
      "nah</w>": 1679,
      "article</w>": 1680,
      "Listen</w>": 1681,
      "winning</w>": 1682,
      "complete</w>": 1683,
      "Super</w>": 1684,
      "13": 1685,
      "personal</w>": 1686,
      "Chris</w>": 1687,
      "teacher</w>": 1688,
      ":smiling_face_with_sunglasses:</w>": 1689,
      "major</w>": 1690,
      "currently</w>": 1691,
      "su": 1692,
      "daughter</w>": 1693,
      "view</w>": 1694,
      "min</w>": 1695,
      ":party_popper:</w>": 1696,
      "suck</w>": 1697,
      "choose</w>": 1698,
      "Z</w>": 1699,
      "difference</w>": 1700,
      "31</w>": 1701,
      "id": 1702,
      "market</w>": 1703,
      "#L": 1704,
      "fair</w>": 1705,
      "ana</w>": 1706,
      "decided</w>": 1707,
      "bs</w>": 1708,
      "14": 1709,
      "Call</w>": 1710,
      "shop</w>": 1711,
      "stories</w>": 1712,
      ":crying_face:</w>": 1713,
      "nd</w>": 1714,
      ":eyes:</w>": 1715,
      "skin</w>": 1716,
      "Paul</w>": 1717,
      "Wind</w>": 1718,
      "stage</w>": 1719,
      "brought</w>": 1720,
      "ps</w>": 1721,
      "energy</w>": 1722,
      "career</w>": 1723,
      "opinion</w>": 1724,
      "England</w>": 1725,
      "present</w>": 1726,
      "price</w>": 1727,
      "British</w>": 1728,
      "Know</w>": 1729,
      "singing</w>": 1730,
      "information</w>": 1731,
      "return</w>": 1732,
      "earlier</w>": 1733,
      ":pouting_face:</w>": 1734,
      "fell</w>": 1735,
      "Very</w>": 1736,
      "wa": 1737,
      "soul</w>": 1738,
      "18": 1739,
      "War</w>": 1740,
      "car": 1741,
      "simple</w>": 1742,
      "Next</w>": 1743,
      "End</w>": 1744,
      "bar</w>": 1745,
      "total</w>": 1746,
      "ly": 1747,
      "league</w>": 1748,
      "Off</w>": 1749,
      "Canada</w>": 1750,
      "St": 1751,
      "political</w>": 1752,
      "San</w>": 1753,
      "#E": 1754,
      "thoughts</w>": 1755,
      "kiss</w>": 1756,
      "Girls</w>": 1757,
      "Ro": 1758,
      ":blue_heart:</w>": 1759,
      "LA</w>": 1760,
      "radio</w>": 1761,
      "hang</w>": 1762,
      "Omg</w>": 1763,
      "sale</w>": 1764,
      "os</w>": 1765,
      "Tuesday</w>": 1766,
      "ad</w>": 1767,
      "pa": 1768,
      "board</w>": 1769,
      "xxx</w>": 1770,
      "ina</w>": 1771,
      "po": 1772,
      "Over</w>": 1773,
      "happening</w>": 1774,
      "married</w>": 1775,
      "Mc": 1776,
      "League</w>": 1777,
      "teams</w>": 1778,
      "Tell</w>": 1779,
      "ex": 1780,
      "female</w>": 1781,
      "original</w>": 1782,
      "Cause</w>": 1783,
      "ir": 1784,
      "80</w>": 1785,
      "keeps</w>": 1786,
      "my": 1787,
      "ex</w>": 1788,
      "Any</w>": 1789,
      "MA": 1790,
      "per": 1791,
      "Con": 1792,
      "OUT</w>": 1793,
      "Been</w>": 1794,
      "Think</w>": 1795,
      "period</w>": 1796,
      "practice</w>": 1797,
      "held</w>": 1798,
      "ks</w>": 1799,
      "35</w>": 1800,
      "ID</w>": 1801,
      "feet</w>": 1802,
      "gon</w>": 1803,
      "church</w>": 1804,
      "figure</w>": 1805,
      "#H": 1806,
      "ie</w>": 1807,
      "sell</w>": 1808,
      "positive</w>": 1809,
      "IF</w>": 1810,
      "Cup</w>": 1811,
      "spot</w>": 1812,
      "offer</w>": 1813,
      "training</w>": 1814,
      "several</w>": 1815,
      "Hot</w>": 1816,
      "st</w>": 1817,
      "q": 1818,
      "#I": 1819,
      "caught</w>": 1820,
      "FUCK</w>": 1821,
      ":sleeping_face:</w>": 1822,
      "Shit</w>": 1823,
      "over": 1824,
      "ay</w>": 1825,
      "normal</w>": 1826,
      "MUCH</w>": 1827,
      "et": 1828,
      "GET</w>": 1829,
      "broken</w>": 1830,
      "shower</w>": 1831,
      "knowing</w>": 1832,
      "station</w>": 1833,
      "shoes</w>": 1834,
      "Being</w>": 1835,
      "ee": 1836,
      "success</w>": 1837,
      "IN": 1838,
      "Q</w>": 1839,
      "Team</w>": 1840,
      "brain</w>": 1841,
      "naked</w>": 1842,
      "election</w>": 1843,
      "slow</w>": 1844,
      "interested</w>": 1845,
      "sa</w>": 1846,
      "data</w>": 1847,
      "fix</w>": 1848,
      "ne": 1849,
      "Air</w>": 1850,
      "dat</w>": 1851,
      "trade</w>": 1852,
      "position</w>": 1853,
      "situation</w>": 1854,
      "ive</w>": 1855,
      "Find</w>": 1856,
      "ates</w>": 1857,
      "large</w>": 1858,
      "Give</w>": 1859,
      "wont</w>": 1860,
      "ter</w>": 1861,
      ":expressionless_face:</w>": 1862,
      "killing</w>": 1863,
      "jobs</w>": 1864,
      "allowed</w>": 1865,
      "ou": 1866,
      "hoes</w>": 1867,
      "current</w>": 1868,
      "French</w>": 1869,
      "til</w>": 1870,
      "ter": 1871,
      "yu</w>": 1872,
      "Watching</w>": 1873,
      "WAS</w>": 1874,
      "unless</w>": 1875,
      "details</w>": 1876,
      "pop</w>": 1877,
      "ol": 1878,
      "older</w>": 1879,
      "peace</w>": 1880,
      "Di": 1881,
      "ring</w>": 1882,
      "alive</w>": 1883,
      "update</w>": 1884,
      "Daily</w>": 1885,
      "hoe</w>": 1886,
      "ends</w>": 1887,
      "of": 1888,
      "street</w>": 1889,
      "Idk</w>": 1890,
      "Click</w>": 1891,
      "Getting</w>": 1892,
      "ship</w>": 1893,
      "ran</w>": 1894,
      "Wednesday</w>": 1895,
      "performance</w>": 1896,
      "Summer</w>": 1897,
      "amount</w>": 1898,
      "1.": 1899,
      "j</w>": 1900,
      "ak": 1901,
      "tax</w>": 1902,
      "Dr</w>": 1903,
      "former</w>": 1904,
      "Wish</w>": 1905,
      "Green</w>": 1906,
      "shopping</w>": 1907,
      "CAN</w>": 1908,
      "'": 1909,
      "fighting</w>": 1910,
      "ent": 1911,
      "ES</w>": 1912,
      "treat</w>": 1913,
      "color</w>": 1914,
      "happiness</w>": 1915,
      "weight</w>": 1916,
      "smart</w>": 1917,
      "Which</w>": 1918,
      ":growing_heart:</w>": 1919,
      "mess</w>": 1920,
      "Ch": 1921,
      "kick</w>": 1922,
      "tf</w>": 1923,
      "us": 1924,
      "showing</w>": 1925,
      "acting</w>": 1926,
      "mum</w>": 1927,
      "daily</w>": 1928,
      "role</w>": 1929,
      "hi": 1930,
      "ea": 1931,
      "third</w>": 1932,
      "4th</w>": 1933,
      "green</w>": 1934,
      "ans</w>": 1935,
      "pull</w>": 1936,
      "70</w>": 1937,
      "block</w>": 1938,
      "hurts</w>": 1939,
      "ty</w>": 1940,
      "except</w>": 1941,
      "Dear</w>": 1942,
      "Street</w>": 1943,
      "random</w>": 1944,
      "blood</w>": 1945,
      "plus</w>": 1946,
      "Po": 1947,
      "Am</w>": 1948,
      "internet</w>": 1949,
      "xD</w>": 1950,
      "national</w>": 1951,
      "promise</w>": 1952,
      "bi": 1953,
      "floor</w>": 1954,
      "Updates</w>": 1955,
      "quality</w>": 1956,
      "girlfriend</w>": 1957,
      "Set</w>": 1958,
      "certain</w>": 1959,
      "Health</w>": 1960,
      "ations</w>": 1961,
      "handle</w>": 1962,
      "Nice</w>": 1963,
      "Book</w>": 1964,
      "qu": 1965,
      "explain</w>": 1966,
      "Little</w>": 1967,
      "gun</w>": 1968,
      "awkward</w>": 1969,
      "contact</w>": 1970,
      "seconds</w>": 1971,
      "ay": 1972,
      "ish</w>": 1973,
      "ies</w>": 1974,
      "loving</w>": 1975,
      "Family</w>": 1976,
      "um": 1977,
      "wrote</w>": 1978,
      "smoke</w>": 1979,
      "Times</w>": 1980,
      "20": 1981,
      "official</w>": 1982,
      "pizza</w>": 1983,
      "11": 1984,
      "moved</w>": 1985,
      "No": 1986,
      "YouTube</w>": 1987,
      "ve</w>": 1988,
      "33</w>": 1989,
      "count</w>": 1990,
      "title</w>": 1991,
      "Anyone</w>": 1992,
      "ke": 1993,
      "stars</w>": 1994,
      "build</w>": 1995,
      "ling</w>": 1996,
      "lying</w>": 1997,
      "HE</w>": 1998,
      "created</w>": 1999,
      "dying</w>": 2000,
      "mins</w>": 2001,
      "create</w>": 2002,
      "Gold</w>": 2003,
      "Rain</w>": 2004,
      "rich</w>": 2005,
      "losing</w>": 2006,
      "Brown</w>": 2007,
      "Remember</w>": 2008,
      "fear</w>": 2009,
      "ys</w>": 2010,
      ":p</w>": 2011,
      "AL": 2012,
      "California</w>": 2013,
      "beach</w>": 2014,
      "afraid</w>": 2015,
      "500</w>": 2016,
      "screen</w>": 2017,
      "Instagram</w>": 2018,
      "coach</w>": 2019,
      "profile</w>": 2020,
      "Ho": 2021,
      "park</w>": 2022,
      "Has</w>": 2023,
      "01</w>": 2024,
      "Texas</w>": 2025,
      "Bar": 2026,
      "reach</w>": 2027,
      "NY</w>": 2028,
      "interview</w>": 2029,
      "table</w>": 2030,
      "towards</w>": 2031,
      "goals</w>": 2032,
      "design</w>": 2033,
      "chicken</w>": 2034,
      "ings</w>": 2035,
      "East</w>": 2036,
      "sports</w>": 2037,
      "homework</w>": 2038,
      "fly</w>": 2039,
      "OH</w>": 2040,
      "reality</w>": 2041,
      "ion</w>": 2042,
      "bullshit</w>": 2043,
      "decision</w>": 2044,
      "Taylor</w>": 2045,
      "score</w>": 2046,
      "Help</w>": 2047,
      "32</w>": 2048,
      "Social</w>": 2049,
      "judge</w>": 2050,
      "ticket</w>": 2051,
      "written</w>": 2052,
      "WHY</w>": 2053,
      "Week</w>": 2054,
      "opening</w>": 2055,
      "likely</w>": 2056,
      "tea</w>": 2057,
      "common</w>": 2058,
      "court</w>": 2059,
      "favourite</w>": 2060,
      "Way</w>": 2061,
      "200</w>": 2062,
      "sky</w>": 2063,
      "sk": 2064,
      "drinking</w>": 2065,
      "stick</w>": 2066,
      "Me": 2067,
      "boring</w>": 2068,
      "ground</w>": 2069,
      "sis</w>": 2070,
      "ne</w>": 2071,
      "received</w>": 2072,
      "Pro": 2073,
      "cream</w>": 2074,
      "Club</w>": 2075,
      ":upside-down_face:</w>": 2076,
      "evening</w>": 2077,
      "doubt</w>": 2078,
      "En": 2079,
      "waste</w>": 2080,
      "snow</w>": 2081,
      "ons</w>": 2082,
      "conversation</w>": 2083,
      "op": 2084,
      "ian</w>": 2085,
      "roll</w>": 2086,
      "ki</w>": 2087,
      "man": 2088,
      "ended</w>": 2089,
      "hungry</w>": 2090,
      "gu": 2091,
      "Online</w>": 2092,
      "February</w>": 2093,
      "alright</w>": 2094,
      "dy</w>": 2095,
      "cup</w>": 2096,
      "somewhere</w>": 2097,
      "Since</w>": 2098,
      "advice</w>": 2099,
      "pre": 2100,
      "Stay</w>": 2101,
      "twice</w>": 2102,
      "Everything</w>": 2103,
      "sold</w>": 2104,
      "blame</w>": 2105,
      "wins</w>": 2106,
      "honest</w>": 2107,
      "plays</w>": 2108,
      "closed</w>": 2109,
      "est": 2110,
      "term</w>": 2111,
      "Finally</w>": 2112,
      "student</w>": 2113,
      "holiday</w>": 2114,
      "ni": 2115,
      "loss</w>": 2116,
      "stopped</w>": 2117,
      "OR</w>": 2118,
      "lmfao</w>": 2119,
      "Things</w>": 2120,
      "shoot</w>": 2121,
      "pray</w>": 2122,
      "ul": 2123,
      "built</w>": 2124,
      "George</w>": 2125,
      "bye</w>": 2126,
      "stream</w>": 2127,
      "places</w>": 2128,
      "beer</w>": 2129,
      "mention</w>": 2130,
      "scene</w>": 2131,
      "Media</w>": 2132,
      "kept</w>": 2133,
      "II</w>": 2134,
      "racist</w>": 2135,
      "ve": 2136,
      "force</w>": 2137,
      "upset</w>": 2138,
      "College</w>": 2139,
      "loud</w>": 2140,
      ":person_tipping_hand:</w>": 2141,
      "boo</w>": 2142,
      "While</w>": 2143,
      ":person_shrugging:</w>": 2144,
      "none</w>": 2145,
      "tells</w>": 2146,
      "actual</w>": 2147,
      "double</w>": 2148,
      "bar": 2149,
      "research</w>": 2150,
      "travel</w>": 2151,
      "ba</w>": 2152,
      "focus</w>": 2153,
      "out": 2154,
      "realized</w>": 2155,
      "process</w>": 2156,
      "greatest</w>": 2157,
      "99</w>": 2158,
      "ker</w>": 2159,
      "learned</w>": 2160,
      "ent</w>": 2161,
      "bless</w>": 2162,
      "pissed</w>": 2163,
      "voted</w>": 2164,
      "cousin</w>": 2165,
      "response</w>": 2166,
      "channel</w>": 2167,
      "EU</w>": 2168,
      "pro": 2169,
      "VIDEO</w>": 2170,
      "gold</w>": 2171,
      "thru</w>": 2172,
      "holding</w>": 2173,
      "above</w>": 2174,
      "boss</w>": 2175,
      "ED</w>": 2176,
      "der</w>": 2177,
      "Australia</w>": 2178,
      "program</w>": 2179,
      "Ba": 2180,
      "breakfast</w>": 2181,
      "Coronavirus</w>": 2182,
      "Work</w>": 2183,
      "campaign</w>": 2184,
      "shall</w>": 2185,
      "___</w>": 2186,
      "cost</w>": 2187,
      "grade</w>": 2188,
      "La": 2189,
      "CA</w>": 2190,
      "mo</w>": 2191,
      "drama</w>": 2192,
      "up": 2193,
      "private</w>": 2194,
      "AN": 2195,
      "Art</w>": 2196,
      "Lady</w>": 2197,
      "chocolate</w>": 2198,
      "earth</w>": 2199,
      "est</w>": 2200,
      "buying</w>": 2201,
      "ER</w>": 2202,
      "model</w>": 2203,
      "Say</w>": 2204,
      "artist</w>": 2205,
      "Those</w>": 2206,
      "ness</w>": 2207,
      "Par": 2208,
      "Chinese</w>": 2209,
      "Miss</w>": 2210,
      "nap</w>": 2211,
      "dear</w>": 2212,
      "results</w>": 2213,
      "Hahaha</w>": 2214,
      "GOD</w>": 2215,
      "Go": 2216,
      ":tired_face:</w>": 2217,
      "credit</w>": 2218,
      "mph</w>": 2219,
      "Morning</w>": 2220,
      "ch</w>": 2221,
      "leader</w>": 2222,
      "rights</w>": 2223,
      "basically</w>": 2224,
      "Americans</w>": 2225,
      "cake</w>": 2226,
      "Russia</w>": 2227,
      "sc": 2228,
      "famous</w>": 2229,
      "Ad": 2230,
      "ge": 2231,
      "tears</w>": 2232,
      "pants</w>": 2233,
      "whether</w>": 2234,
      "names</w>": 2235,
      "Chicago</w>": 2236,
      "ver": 2237,
      "dm</w>": 2238,
      "husband</w>": 2239,
      "mi</w>": 2240,
      "HA": 2241,
      "sm": 2242,
      "Florida</w>": 2243,
      "jealous</w>": 2244,
      "Open</w>": 2245,
      "ens</w>": 2246,
      "ss</w>": 2247,
      "comment</w>": 2248,
      "jus</w>": 2249,
      "Post</w>": 2250,
      "75</w>": 2251,
      ":winking_face_with_tongue:</w>": 2252,
      "Wait</w>": 2253,
      "taste</w>": 2254,
      "Long</w>": 2255,
      "language</w>": 2256,
      "WILL</w>": 2257,
      "sha": 2258,
      "Sha": 2259,
      "popular</w>": 2260,
      "ily</w>": 2261,
      "passed</w>": 2262,
      "International</w>": 2263,
      "di</w>": 2264,
      "learning</w>": 2265,
      "so": 2266,
      "LIVE</w>": 2267,
      "services</w>": 2268,
      "wedding</w>": 2269,
      "Money</w>": 2270,
      "bank</w>": 2271,
      "surprised</w>": 2272,
      "hoping</w>": 2273,
      "review</w>": 2274,
      "dogs</w>": 2275,
      "Looks</w>": 2276,
      "Lo": 2277,
      "Center</w>": 2278,
      "hello</w>": 2279,
      "crap</w>": 2280,
      "goin</w>": 2281,
      "Police</w>": 2282,
      "les</w>": 2283,
      "classes</w>": 2284,
      "gas</w>": 2285,
      "involved</w>": 2286,
      "Washington</w>": 2287,
      "beginning</w>": 2288,
      "press</w>": 2289,
      "general</w>": 2290,
      "imma</w>": 2291,
      "hopefully</w>": 2292,
      "DAY</w>": 2293,
      "accept</w>": 2294,
      "Old</w>": 2295,
      "ss": 2296,
      "bunch</w>": 2297,
      "#NowPlaying</w>": 2298,
      "ugh</w>": 2299,
      "ms</w>": 2300,
      "ideas</w>": 2301,
      "2008</w>": 2302,
      "changes</w>": 2303,
      "falling</w>": 2304,
      ":grinning_face_with_smiling_eyes:</w>": 2305,
      "Gotta</w>": 2306,
      "lazy</w>": 2307,
      "soo</w>": 2308,
      "claim</w>": 2309,
      "warm</w>": 2310,
      "OK</w>": 2311,
      "Down</w>": 2312,
      "Part</w>": 2313,
      "miles</w>": 2314,
      "Power</w>": 2315,
      "confused</w>": 2316,
      "48</w>": 2317,
      "Indian</w>": 2318,
      "lay</w>": 2319,
      "#J": 2320,
      "teen</w>": 2321,
      "der": 2322,
      "TL</w>": 2323,
      "ITS</w>": 2324,
      "AN</w>": 2325,
      "On": 2326,
      "challenge</w>": 2327,
      "sharing</w>": 2328,
      "keeping</w>": 2329,
      "ant": 2330,
      "outta</w>": 2331,
      "Boy</w>": 2332,
      "healthy</w>": 2333,
      ":')</w>": 2334,
      "ep": 2335,
      "Size</w>": 2336,
      "However</w>": 2337,
      "Playing</w>": 2338,
      "ru": 2339,
      "Better</w>": 2340,
      "kin</w>": 2341,
      "fa": 2342,
      "Do": 2343,
      "example</w>": 2344,
      "FUCKING</w>": 2345,
      "clearly</w>": 2346,
      "upon</w>": 2347,
      "Their</w>": 2348,
      "fav</w>": 2349,
      "mar": 2350,
      "further</w>": 2351,
      "ST": 2352,
      "basketball</w>": 2353,
      "KNOW</w>": 2354,
      "events</w>": 2355,
      "Dont</w>": 2356,
      "terrible</w>": 2357,
      "vi": 2358,
      "cos</w>": 2359,
      "Play</w>": 2360,
      "bigger</w>": 2361,
      "Young</w>": 2362,
      "il</w>": 2363,
      "brand</w>": 2364,
      "par": 2365,
      "signed</w>": 2366,
      "Congrats</w>": 2367,
      "legs</w>": 2368,
      "ending</w>": 2369,
      "UN": 2370,
      "talks</w>": 2371,
      "helping</w>": 2372,
      "row</w>": 2373,
      "ins</w>": 2374,
      "da": 2375,
      "gh": 2376,
      "HAPPY</w>": 2377,
      "hearing</w>": 2378,
      "Amazon</w>": 2379,
      "content</w>": 2380,
      "security</w>": 2381,
      "0.": 2382,
      "Africa</w>": 2383,
      "stats</w>": 2384,
      "decide</w>": 2385,
      "ge</w>": 2386,
      "mis": 2387,
      "fully</w>": 2388,
      "beyond</w>": 2389,
      "trouble</w>": 2390,
      "Bill</w>": 2391,
      "opportunity</w>": 2392,
      "LO": 2393,
      "staff</w>": 2394,
      "Joe</w>": 2395,
      "Japan</w>": 2396,
      "My": 2397,
      "Mark</w>": 2398,
      "＠</w>": 2399,
      "weak</w>": 2400,
      "six</w>": 2401,
      "Donald</w>": 2402,
      "Europe</w>": 2403,
      "Once</w>": 2404,
      "ic</w>": 2405,
      "secret</w>": 2406,
      "reasons</w>": 2407,
      "Try</w>": 2408,
      "folks</w>": 2409,
      "ING</w>": 2410,
      ":confused_face:</w>": 2411,
      "36</w>": 2412,
      "Bitch</w>": 2413,
      "Le": 2414,
      "Ever</w>": 2415,
      "average</w>": 2416,
      "Ra": 2417,
      ":neutral_face:</w>": 2418,
      "obviously</w>": 2419,
      "Many</w>": 2420,
      "fault</w>": 2421,
      "daddy</w>": 2422,
      "France</w>": 2423,
      "growing</w>": 2424,
      "rate</w>": 2425,
      "ev": 2426,
      "Road</w>": 2427,
      "spread</w>": 2428,
      "Tom</w>": 2429,
      "memories</w>": 2430,
      "DC</w>": 2431,
      "published</w>": 2432,
      "sir</w>": 2433,
      "ous</w>": 2434,
      "computer</w>": 2435,
      "ler</w>": 2436,
      "Li": 2437,
      "simply</w>": 2438,
      "Price</w>": 2439,
      "tweeted</w>": 2440,
      "education</w>": 2441,
      "tt": 2442,
      "Before</w>": 2443,
      "beauty</w>": 2444,
      "YES</w>": 2445,
      "Rock</w>": 2446,
      ":face_savoring_food:</w>": 2447,
      "ye</w>": 2448,
      "Bad</w>": 2449,
      "Dis": 2450,
      "eBay</w>": 2451,
      "wood</w>": 2452,
      "value</w>": 2453,
      "effort</w>": 2454,
      "Job</w>": 2455,
      "population</w>": 2456,
      "retweet</w>": 2457,
      "fam</w>": 2458,
      "AC": 2459,
      "fish</w>": 2460,
      "du": 2461,
      "letting</w>": 2462,
      "interest</w>": 2463,
      "afternoon</w>": 2464,
      "runs</w>": 2465,
      "ber": 2466,
      "als</w>": 2467,
      "Learn</w>": 2468,
      "2009</w>": 2469,
      "hat</w>": 2470,
      "kno</w>": 2471,
      "wild</w>": 2472,
      "Series</w>": 2473,
      "Seriously</w>": 2474,
      "tr": 2475,
      "nude</w>": 2476,
      "anybody</w>": 2477,
      "gi": 2478,
      "US": 2479,
      "note</w>": 2480,
      "Hate</w>": 2481,
      "awake</w>": 2482,
      "HD</w>": 2483,
      "nights</w>": 2484,
      "Luke</w>": 2485,
      "angry</w>": 2486,
      "selling</w>": 2487,
      "Download</w>": 2488,
      "ator</w>": 2489,
      "Mike</w>": 2490,
      "ka": 2491,
      "military</w>": 2492,
      "Be": 2493,
      "turns</w>": 2494,
      "seat</w>": 2495,
      "traffic</w>": 2496,
      "eb": 2497,
      "Mu": 2498,
      "lu": 2499,
      "Having</w>": 2500,
      "Sa": 2501,
      "AS": 2502,
      "exist</w>": 2503,
      "HOW</w>": 2504,
      "sort</w>": 2505,
      "Use</w>": 2506,
      ":broken_heart:</w>": 2507,
      "Made</w>": 2508,
      "speaking</w>": 2509,
      "apparently</w>": 2510,
      "ignore</w>": 2511,
      "arms</w>": 2512,
      "sh</w>": 2513,
      "apart</w>": 2514,
      "camera</w>": 2515,
      "bday</w>": 2516,
      "wine</w>": 2517,
      "ig": 2518,
      "Pretty</w>": 2519,
      "34</w>": 2520,
      "Mom</w>": 2521,
      "schools</w>": 2522,
      "Guess</w>": 2523,
      "among</w>": 2524,
      "Official</w>": 2525,
      "draw</w>": 2526,
      "window</w>": 2527,
      "gorgeous</w>": 2528,
      "worried</w>": 2529,
      "ability</w>": 2530,
      "recently</w>": 2531,
      "comments</w>": 2532,
      "rules</w>": 2533,
      "charge</w>": 2534,
      "paying</w>": 2535,
      "shame</w>": 2536,
      "00</w>": 2537,
      "result</w>": 2538,
      "ff": 2539,
      "ten</w>": 2540,
      ":person_facepalming:</w>": 2541,
      "flight</w>": 2542,
      "ding</w>": 2543,
      "tough</w>": 2544,
      "blessed</w>": 2545,
      "Louis</w>": 2546,
      "95</w>": 2547,
      "2007</w>": 2548,
      "allow</w>": 2549,
      ":face_with_steam_from_nose:</w>": 2550,
      "ga": 2551,
      "numbers</w>": 2552,
      "Date</w>": 2553,
      "cars</w>": 2554,
      ":male_sign:</w>": 2555,
      "dropped</w>": 2556,
      "Smh</w>": 2557,
      "difficult</w>": 2558,
      "XD</w>": 2559,
      "LOOK</w>": 2560,
      "aw</w>": 2561,
      "Or": 2562,
      "eh</w>": 2563,
      "scary</w>": 2564,
      "countries</w>": 2565,
      ":disappointed_face:</w>": 2566,
      "Group</w>": 2567,
      "lately</w>": 2568,
      "include</w>": 2569,
      "itself</w>": 2570,
      "mama</w>": 2571,
      "dirty</w>": 2572,
      "Hillary</w>": 2573,
      "ra</w>": 2574,
      "TS</w>": 2575,
      "#O": 2576,
      "winter</w>": 2577,
      "bill</w>": 2578,
      "heat</w>": 2579,
      "nation</w>": 2580,
      "nearly</w>": 2581,
      "fresh</w>": 2582,
      "wi": 2583,
      "Gonna</w>": 2584,
      "AR": 2585,
      "voting</w>": 2586,
      "Humidity</w>": 2587,
      "dnt</w>": 2588,
      "pp": 2589,
      "fail</w>": 2590,
      "pack</w>": 2591,
      "teach</w>": 2592,
      "PC</w>": 2593,
      "q</w>": 2594,
      "industry</w>": 2595,
      "tips</w>": 2596,
      "ll</w>": 2597,
      "Yo</w>": 2598,
      "yr</w>": 2599,
      "Care</w>": 2600,
      "wondering</w>": 2601,
      "talked</w>": 2602,
      "/": 2603,
      "Su": 2604,
      "cu": 2605,
      "Battle</w>": 2606,
      "easier</w>": 2607,
      "feed</w>": 2608,
      "mu": 2609,
      "click</w>": 2610,
      "cares</w>": 2611,
      "cases</w>": 2612,
      "similar</w>": 2613,
      "Cor": 2614,
      "NFL</w>": 2615,
      "standing</w>": 2616,
      "True</w>": 2617,
      "Plus</w>": 2618,
      "however</w>": 2619,
      "trash</w>": 2620,
      "EN": 2621,
      "LI": 2622,
      "Same</w>": 2623,
      "stress</w>": 2624,
      "ut": 2625,
      "Silver</w>": 2626,
      "access</w>": 2627,
      "44</w>": 2628,
      "Pre": 2629,
      "sooo</w>": 2630,
      "TH": 2631,
      "tha</w>": 2632,
      "Fire</w>": 2633,
      "hospital</w>": 2634,
      "ally</w>": 2635,
      "era</w>": 2636,
      "idiot</w>": 2637,
      "horrible</w>": 2638,
      "Christian</w>": 2639,
      "co</w>": 2640,
      "Har": 2641,
      "natural</w>": 2642,
      "ladies</w>": 2643,
      "har": 2644,
      "Man": 2645,
      "ite</w>": 2646,
      "successful</w>": 2647,
      "Light</w>": 2648,
      "br": 2649,
      "push</w>": 2650,
      "Clinton</w>": 2651,
      "cheese</w>": 2652,
      "pool</w>": 2653,
      "NEVER</w>": 2654,
      "Ima</w>": 2655,
      "THEY</w>": 2656,
      "AM": 2657,
      "un</w>": 2658,
      "TIME</w>": 2659,
      "battle</w>": 2660,
      "doesnt</w>": 2661,
      "evil</w>": 2662,
      "higher</w>": 2663,
      "wide</w>": 2664,
      "easily</w>": 2665,
      "foot</w>": 2666,
      "DONT</w>": 2667,
      "Deals</w>": 2668,
      "Enjoy</w>": 2669,
      "ho</w>": 2670,
      "Congress</w>": 2671,
      "jump</w>": 2672,
      "wanting</w>": 2673,
      "BBC</w>": 2674,
      "butt</w>": 2675,
      "pe</w>": 2676,
      "AS</w>": 2677,
      "speech</w>": 2678,
      "Case</w>": 2679,
      "Football</w>": 2680,
      "science</w>": 2681,
      "protect</w>": 2682,
      "#i": 2683,
      "end": 2684,
      "oo": 2685,
      "bio</w>": 2686,
      "Jack</w>": 2687,
      "noticed</w>": 2688,
      "shes</w>": 2689,
      "slowly</w>": 2690,
      "CO": 2691,
      "helped</w>": 2692,
      "Tonight</w>": 2693,
      "ry</w>": 2694,
      "smell</w>": 2695,
      "lines</w>": 2696,
      "Y'all</w>": 2697,
      "hits</w>": 2698,
      "spring</w>": 2699,
      "facts</w>": 2700,
      "everywhere</w>": 2701,
      "oc": 2702,
      "below</w>": 2703,
      "ist</w>": 2704,
      "♫</w>": 2705,
      "characters</w>": 2706,
      "risk</w>": 2707,
      "ap": 2708,
      "ng</w>": 2709,
      "ang": 2710,
      "hahahaha</w>": 2711,
      "mental</w>": 2712,
      ":flexed_biceps:</w>": 2713,
      "ked</w>": 2714,
      ":face_screaming_in_fear:</w>": 2715,
      "ors</w>": 2716,
      "lack</w>": 2717,
      "direction</w>": 2718,
      "Th": 2719,
      "cha": 2720,
      "42</w>": 2721,
      "non-": 2722,
      "fu": 2723,
      "38</w>": 2724,
      "faith</w>": 2725,
      "ard</w>": 2726,
      "excuse</w>": 2727,
      "Tweet</w>": 2728,
      "south</w>": 2729,
      "ky</w>": 2730,
      "bottom</w>": 2731,
      "began</w>": 2732,
      "#t": 2733,
      "provide</w>": 2734,
      "Service</w>": 2735,
      "hole</w>": 2736,
      "ph": 2737,
      "IS": 2738,
      "planning</w>": 2739,
      "DJ</w>": 2740,
      "Per": 2741,
      "walked</w>": 2742,
      "shots</w>": 2743,
      "hug</w>": 2744,
      "den</w>": 2745,
      "ves</w>": 2746,
      "whenever</w>": 2747,
      "changing</w>": 2748,
      ":revolving_hearts:</w>": 2749,
      "Germany</w>": 2750,
      "wa</w>": 2751,
      "shooting</w>": 2752,
      "download</w>": 2753,
      "Feel</w>": 2754,
      "24": 2755,
      "nose</w>": 2756,
      "\\</w>": 2757,
      "dating</w>": 2758,
      "So": 2759,
      "BC</w>": 2760,
      "makeup</w>": 2761,
      "weed</w>": 2762,
      "ance</w>": 2763,
      "Talk</w>": 2764,
      "German</w>": 2765,
      "re-": 2766,
      "cash</w>": 2767,
      "Russian</w>": 2768,
      "winner</w>": 2769,
      "Jordan</w>": 2770,
      "Welcome</w>": 2771,
      "manager</w>": 2772,
      "politics</w>": 2773,
      "30": 2774,
      "Beautiful</w>": 2775,
      "expected</w>": 2776,
      "dies</w>": 2777,
      "tree</w>": 2778,
      "y-": 2779,
      "Court</w>": 2780,
      "IT": 2781,
      "ages</w>": 2782,
      "Sports</w>": 2783,
      "huh</w>": 2784,
      "abt</w>": 2785,
      "hu": 2786,
      "located</w>": 2787,
      "2006</w>": 2788,
      "CH": 2789,
      "Smith</w>": 2790,
      "dis</w>": 2791,
      "ong</w>": 2792,
      "Bi": 2793,
      "Sp": 2794,
      "burn</w>": 2795,
      "GOP</w>": 2796,
      "oil</w>": 2797,
      "cast</w>": 2798,
      "turning</w>": 2799,
      "blow</w>": 2800,
      "bringing</w>": 2801,
      "ism</w>": 2802,
      "RO": 2803,
      "staying</w>": 2804,
      "anywhere</w>": 2805,
      "surprise</w>": 2806,
      "dancing</w>": 2807,
      "quit</w>": 2808,
      "correct</w>": 2809,
      "celebrate</w>": 2810,
      "Mon": 2811,
      "search</w>": 2812,
      "suppose</w>": 2813,
      "sw": 2814,
      "BEST</w>": 2815,
      "stock</w>": 2816,
      "tag</w>": 2817,
      "ver</w>": 2818,
      "Trying</w>": 2819,
      "helps</w>": 2820,
      "Qu": 2821,
      "Cha": 2822,
      "ff</w>": 2823,
      "balls</w>": 2824,
      "bruh</w>": 2825,
      "west</w>": 2826,
      "0.0</w>": 2827,
      "ji</w>": 2828,
      "EVER</w>": 2829,
      "spending</w>": 2830,
      "saved</w>": 2831,
      "mon": 2832,
      "babies</w>": 2833,
      "development</w>": 2834,
      "uses</w>": 2835,
      "ze</w>": 2836,
      "ment</w>": 2837,
      "300</w>": 2838,
      "hilarious</w>": 2839,
      "Mexico</w>": 2840,
      "pa</w>": 2841,
      "button</w>": 2842,
      "btw</w>": 2843,
      "exam</w>": 2844,
      "gs</w>": 2845,
      "com": 2846,
      "fool</w>": 2847,
      "Tomorrow</w>": 2848,
      "Army</w>": 2849,
      "crush</w>": 2850,
      "av": 2851,
      "deserves</w>": 2852,
      "37</w>": 2853,
      "During</w>": 2854,
      "ir</w>": 2855,
      "cards</w>": 2856,
      "related</w>": 2857,
      "Amazing</w>": 2858,
      "Ka": 2859,
      "products</w>": 2860,
      "com</w>": 2861,
      "sending</w>": 2862,
      "#V": 2863,
      "Android</w>": 2864,
      "lips</w>": 2865,
      "base</w>": 2866,
      "consider</w>": 2867,
      "I'M</w>": 2868,
      "alot</w>": 2869,
      "gotten</w>": 2870,
      "Marketing</w>": 2871,
      "mi": 2872,
      "Season</w>": 2873,
      "Ryan</w>": 2874,
      "GOOD</w>": 2875,
      "grown</w>": 2876,
      "fantastic</w>": 2877,
      "Bu": 2878,
      "recent</w>": 2879,
      "ga</w>": 2880,
      "{</w>": 2881,
      "pair</w>": 2882,
      "#p": 2883,
      "regret</w>": 2884,
      "ey": 2885,
      "officially</w>": 2886,
      "Games</w>": 2887,
      "wind</w>": 2888,
      "Kids</w>": 2889,
      "blocked</w>": 2890,
      "lights</w>": 2891,
      "Kim</w>": 2892,
      "ster</w>": 2893,
      "bottle</w>": 2894,
      "finding</w>": 2895,
      "Ex": 2896,
      "Ai</w>": 2897,
      "SEE</w>": 2898,
      "ER": 2899,
      "failed</w>": 2900,
      "WANT</w>": 2901,
      "NBA</w>": 2902,
      "parts</w>": 2903,
      "century</w>": 2904,
      "ty": 2905,
      "55</w>": 2906,
      "Queen</w>": 2907,
      "Internet</w>": 2908,
      "gr": 2909,
      "Nobody</w>": 2910,
      "tie</w>": 2911,
      "Church</w>": 2912,
      "65</w>": 2913,
      "Win</w>": 2914,
      "rude</w>": 2915,
      "pl": 2916,
      "Direction</w>": 2917,
      "#job</w>": 2918,
      "Disney</w>": 2919,
      ":sun:</w>": 2920,
      "Spanish</w>": 2921,
      "Report</w>": 2922,
      "address</w>": 2923,
      "showed</w>": 2924,
      "leg</w>": 2925,
      "Bieber</w>": 2926,
      "Glad</w>": 2927,
      "enter</w>": 2928,
      "Com": 2929,
      "served</w>": 2930,
      "mistake</w>": 2931,
      "2000</w>": 2932,
      "Friends</w>": 2933,
      "SH": 2934,
      "Ne": 2935,
      "talent</w>": 2936,
      "#SoundCloud</w>": 2937,
      "wh": 2938,
      "43</w>": 2939,
      "Congratulations</w>": 2940,
      "Visit</w>": 2941,
      "2.": 2942,
      "-></w>": 2943,
      "heads</w>": 2944,
      "rule</w>": 2945,
      "Food</w>": 2946,
      "opened</w>": 2947,
      "earned</w>": 2948,
      "soft</w>": 2949,
      "regular</w>": 2950,
      "Gu": 2951,
      "Him</w>": 2952,
      "begin</w>": 2953,
      "Tour</w>": 2954,
      "Heart</w>": 2955,
      "culture</w>": 2956,
      "23": 2957,
      "breaking</w>": 2958,
      "speed</w>": 2959,
      "Car</w>": 2960,
      "closer</w>": 2961,
      "Ya</w>": 2962,
      "ridiculous</w>": 2963,
      "Pro</w>": 2964,
      "IC": 2965,
      "Jo": 2966,
      "49</w>": 2967,
      ":yellow_heart:</w>": 2968,
      "Market</w>": 2969,
      "becoming</w>": 2970,
      "moon</w>": 2971,
      "ol</w>": 2972,
      "02</w>": 2973,
      "glass</w>": 2974,
      "sum</w>": 2975,
      "Everybody</w>": 2976,
      "Lil</w>": 2977,
      "quickly</w>": 2978,
      "#no": 2979,
      "considered</w>": 2980,
      "under": 2981,
      "network</w>": 2982,
      "checked</w>": 2983,
      "Guys</w>": 2984,
      "5th</w>": 2985,
      "Pa": 2986,
      "Story</w>": 2987,
      "states</w>": 2988,
      "COVID</w>": 2989,
      "awful</w>": 2990,
      "Niggas</w>": 2991,
      "freaking</w>": 2992,
      "Bid</w>": 2993,
      "sunshine</w>": 2994,
      "male</w>": 2995,
      "Song</w>": 2996,
      "39</w>": 2997,
      "jo": 2998,
      "08": 2999,
      "General</w>": 3000,
      "MO": 3001,
      "Special</w>": 3002,
      "neck</w>": 3003,
      "que</w>": 3004,
      "Us</w>": 3005,
      "society</w>": 3006,
      "ded</w>": 3007,
      "Other</w>": 3008,
      "Company</w>": 3009,
      "River</w>": 3010,
      "41</w>": 3011,
      "RA": 3012,
      "#c": 3013,
      "legal</w>": 3014,
      "19": 3015,
      "Review</w>": 3016,
      "Something</w>": 3017,
      "professional</w>": 3018,
      "aka</w>": 3019,
      "companies</w>": 3020,
      "af": 3021,
      "Hard</w>": 3022,
      "picked</w>": 3023,
      "Se": 3024,
      "families</w>": 3025,
      ":heart_with_arrow:</w>": 3026,
      "ES": 3027,
      "pressure</w>": 3028,
      "Fox</w>": 3029,
      "}</w>": 3030,
      "brothers</w>": 3031,
      "00": 3032,
      ":sleepy_face:</w>": 3033,
      "Sun</w>": 3034,
      "adult</w>": 3035,
      "ton": 3036,
      "mobile</w>": 3037,
      "Steve</w>": 3038,
      "25": 3039,
      "GOT</w>": 3040,
      "sub": 3041,
      "cancer</w>": 3042,
      "5sos</w>": 3043,
      "pu": 3044,
      "ham</w>": 3045,
      "hide</w>": 3046,
      "min": 3047,
      "prove</w>": 3048,
      "product</w>": 3049,
      "Awesome</w>": 3050,
      "ford</w>": 3051,
      "closet</w>": 3052,
      "Sam</w>": 3053,
      "SE": 3054,
      "BACK</w>": 3055,
      "47</w>": 3056,
      "SA</w>": 3057,
      "Ugh</w>": 3058,
      "sexual</w>": 3059,
      "kidding</w>": 3060,
      "net</w>": 3061,
      "Island</w>": 3062,
      "mer</w>": 3063,
      "NEED</w>": 3064,
      "schedule</w>": 3065,
      "Hopefully</w>": 3066,
      "Of": 3067,
      "plz</w>": 3068,
      "Vote</w>": 3069,
      "harder</w>": 3070,
      "carry</w>": 3071,
      "Wall</w>": 3072,
      "Beach</w>": 3073,
      "Ready</w>": 3074,
      "quote</w>": 3075,
      "sat</w>": 3076,
      "mark</w>": 3077,
      "hahah</w>": 3078,
      "SE</w>": 3079,
      "ani</w>": 3080,
      "evidence</w>": 3081,
      "dry</w>": 3082,
      "leading</w>": 3083,
      "Beauty</w>": 3084,
      "46</w>": 3085,
      "jail</w>": 3086,
      "announced</w>": 3087,
      "competition</w>": 3088,
      "shi": 3089,
      "Digital</w>": 3090,
      "Italy</w>": 3091,
      "avoid</w>": 3092,
      "cor": 3093,
      "ry": 3094,
      "Awards</w>": 3095,
      "debate</w>": 3096,
      "session</w>": 3097,
      "WHO</w>": 3098,
      "hotel</w>": 3099,
      "Allah</w>": 3100,
      "Again</w>": 3101,
      "north</w>": 3102,
      "aw": 3103,
      "#m": 3104,
      "unfollowers</w>": 3105,
      "mix</w>": 3106,
      "lived</w>": 3107,
      "HER</w>": 3108,
      "brings</w>": 3109,
      "ou</w>": 3110,
      "whats</w>": 3111,
      "Chelsea</w>": 3112,
      "han</w>": 3113,
      "angel</w>": 3114,
      "Jones</w>": 3115,
      "crime</w>": 3116,
      "math</w>": 3117,
      "Liverpool</w>": 3118,
      "incredible</w>": 3119,
      "8:</w>": 3120,
      "MORE</w>": 3121,
      "hes</w>": 3122,
      "Movie</w>": 3123,
      "gain</w>": 3124,
      "jokes</w>": 3125,
      "mer": 3126,
      "t-": 3127,
      "quiet</w>": 3128,
      "status</w>": 3129,
      ":cherry_blossom:</w>": 3130,
      "Holy</w>": 3131,
      "females</w>": 3132,
      "ONLY</w>": 3133,
      "SHIT</w>": 3134,
      "receive</w>": 3135,
      "sales</w>": 3136,
      "apply</w>": 3137,
      "Da": 3138,
      "emotional</w>": 3139,
      "Must</w>": 3140,
      "els</w>": 3141,
      "onto</w>": 3142,
      "European</w>": 3143,
      "mor": 3144,
      "cross</w>": 3145,
      "Ca": 3146,
      "#n": 3147,
      "supporting</w>": 3148,
      "purpose</w>": 3149,
      "mostly</w>": 3150,
      "Japanese</w>": 3151,
      "tu": 3152,
      "teeth</w>": 3153,
      "calm</w>": 3154,
      "policy</w>": 3155,
      "stomach</w>": 3156,
      "Na": 3157,
      "back": 3158,
      "copy</w>": 3159,
      "letter</w>": 3160,
      "Nigga</w>": 3161,
      "arm</w>": 3162,
      "Ha</w>": 3163,
      "leaders</w>": 3164,
      "Boston</w>": 3165,
      "Is": 3166,
      "views</w>": 3167,
      "03</w>": 3168,
      "bae</w>": 3169,
      "corner</w>": 3170,
      "leaves</w>": 3171,
      "Alex</w>": 3172,
      ":smiling_face_with_horns:</w>": 3173,
      "uh</w>": 3174,
      "stone</w>": 3175,
      "option</w>": 3176,
      "Paris</w>": 3177,
      "heavy</w>": 3178,
      "Mal": 3179,
      "ville</w>": 3180,
      "te": 3181,
      "source</w>": 3182,
      ":kiss_mark:</w>": 3183,
      "senior</w>": 3184,
      "completed</w>": 3185,
      "Manchester</w>": 3186,
      "Much</w>": 3187,
      "meaning</w>": 3188,
      "aa": 3189,
      "attitude</w>": 3190,
      "follows</w>": 3191,
      "cook</w>": 3192,
      "#b": 3193,
      "joy</w>": 3194,
      "HO": 3195,
      "s-": 3196,
      "ell</w>": 3197,
      "Jobs</w>": 3198,
      "Lee</w>": 3199,
      "wat</w>": 3200,
      "center</w>": 3201,
      "driver</w>": 3202,
      "tri": 3203,
      "App</w>": 3204,
      "sed</w>": 3205,
      "PS</w>": 3206,
      "FROM</w>": 3207,
      "award</w>": 3208,
      "youre</w>": 3209,
      "pink</w>": 3210,
      "inter": 3211,
      "skills</w>": 3212,
      "although</w>": 3213,
      "AB": 3214,
      "ity</w>": 3215,
      "Update</w>": 3216,
      "texting</w>": 3217,
      "Mind</w>": 3218,
      "doctor</w>": 3219,
      "FC</w>": 3220,
      "Pakistan</w>": 3221,
      "Am": 3222,
      "Ri": 3223,
      "DS</w>": 3224,
      "Might</w>": 3225,
      "puts</w>": 3226,
      "international</w>": 3227,
      "admit</w>": 3228,
      "You": 3229,
      "Dead</w>": 3230,
      "uc": 3231,
      "faces</w>": 3232,
      "REALLY</w>": 3233,
      ":raised_hand:</w>": 3234,
      "can": 3235,
      "05</w>": 3236,
      ":oncoming_fist:</w>": 3237,
      "WATCH</w>": 3238,
      "delete</w>": 3239,
      "Du": 3240,
      ":'(</w>": 3241,
      "PO": 3242,
      "Robert</w>": 3243,
      "soccer</w>": 3244,
      "willing</w>": 3245,
      "Sir</w>": 3246,
      "Hall</w>": 3247,
      "Bank</w>": 3248,
      "he": 3249,
      "Head</w>": 3250,
      "bl": 3251,
      "1000</w>": 3252,
      "tight</w>": 3253,
      "yrs</w>": 3254,
      "Israel</w>": 3255,
      "Woman</w>": 3256,
      "collection</w>": 3257,
      "filled</w>": 3258,
      "barely</w>": 3259,
      "storm</w>": 3260,
      "struggle</w>": 3261,
      "active</w>": 3262,
      "shitty</w>": 3263,
      "groups</w>": 3264,
      "joined</w>": 3265,
      "Kar": 3266,
      "taught</w>": 3267,
      "LIFE</w>": 3268,
      "messages</w>": 3269,
      "ther": 3270,
      "Second</w>": 3271,
      "04</w>": 3272,
      "lower</w>": 3273,
      "Netflix</w>": 3274,
      "milk</w>": 3275,
      "Actually</w>": 3276,
      "Ah</w>": 3277,
      "Johnson</w>": 3278,
      "defense</w>": 3279,
      "included</w>": 3280,
      "thankful</w>": 3281,
      "Honestly</w>": 3282,
      "3.": 3283,
      "matters</w>": 3284,
      "Tips</w>": 3285,
      "ls</w>": 3286,
      "enjoyed</w>": 3287,
      "anyways</w>": 3288,
      "knowledge</w>": 3289,
      "rid</w>": 3290,
      ":speak-no-evil_monkey:</w>": 3291,
      "suit</w>": 3292,
      "Both</w>": 3293,
      "fi": 3294,
      "baseball</w>": 3295,
      "gettin</w>": 3296,
      "Arsenal</w>": 3297,
      "Miami</w>": 3298,
      "Lets</w>": 3299,
      "1/2</w>": 3300,
      "lyrics</w>": 3301,
      "Vegas</w>": 3302,
      "son": 3303,
      "statement</w>": 3304,
      "Hill</w>": 3305,
      "ban</w>": 3306,
      "hero</w>": 3307,
      "lock</w>": 3308,
      "Ko": 3309,
      "wen</w>": 3310,
      "ear</w>": 3311,
      "La</w>": 3312,
      "Hell</w>": 3313,
      "Put</w>": 3314,
      "ON": 3315,
      "raise</w>": 3316,
      "nails</w>": 3317,
      "queen</w>": 3318,
      "murder</w>": 3319,
      "rea": 3320,
      "tech</w>": 3321,
      "ko": 3322,
      "Cool</w>": 3323,
      "Christ</w>": 3324,
      "WTF</w>": 3325,
      "Jackson</w>": 3326,
      "64</w>": 3327,
      "SP": 3328,
      "#w": 3329,
      "sea</w>": 3330,
      "#Go": 3331,
      "WHEN</w>": 3332,
      "massive</w>": 3333,
      "camp</w>": 3334,
      "Central</w>": 3335,
      "HERE</w>": 3336,
      "Matt</w>": 3337,
      "drugs</w>": 3338,
      "herself</w>": 3339,
      "Three</w>": 3340,
      "Peter</w>": 3341,
      "piss</w>": 3342,
      "strength</w>": 3343,
      "NE": 3344,
      "brown</w>": 3345,
      "50": 3346,
      "chick</w>": 3347,
      "Such</w>": 3348,
      "Nah</w>": 3349,
      "fr</w>": 3350,
      "Mer": 3351,
      "sport</w>": 3352,
      "Scott</w>": 3353,
      "bird</w>": 3354,
      "Share</w>": 3355,
      "image</w>": 3356,
      "Halloween</w>": 3357,
      "eee</w>": 3358,
      "enjoying</w>": 3359,
      "Dad</w>": 3360,
      "teachers</w>": 3361,
      "Temp</w>": 3362,
      "zone</w>": 3363,
      "posting</w>": 3364,
      "Earth</w>": 3365,
      "pregnant</w>": 3366,
      "African</w>": 3367,
      "AT": 3368,
      "El": 3369,
      "Niall</w>": 3370,
      "Ben</w>": 3371,
      "potential</w>": 3372,
      "Days</w>": 3373,
      "LMAO</w>": 3374,
      "ence</w>": 3375,
      "09</w>": 3376,
      "trump</w>": 3377,
      "village</w>": 3378,
      "Cover</w>": 3379,
      "ju": 3380,
      "proof</w>": 3381,
      "waking</w>": 3382,
      "__</w>": 3383,
      "rise</w>": 3384,
      "snap</w>": 3385,
      "ni</w>": 3386,
      "STOP</w>": 3387,
      "production</w>": 3388,
      "SA": 3389,
      "tw": 3390,
      "ties</w>": 3391,
      "negative</w>": 3392,
      "#Team": 3393,
      "iPad</w>": 3394,
      "load</w>": 3395,
      "commercial</w>": 3396,
      "tht</w>": 3397,
      "impossible</w>": 3398,
      "hella</w>": 3399,
      "ino</w>": 3400,
      "kitchen</w>": 3401,
      "plane</w>": 3402,
      "si</w>": 3403,
      "Mother</w>": 3404,
      "bother</w>": 3405,
      "steps</w>": 3406,
      "snapchat</w>": 3407,
      "eventually</w>": 3408,
      "powerful</w>": 3409,
      "Korea</w>": 3410,
      "Ta": 3411,
      "Ti": 3412,
      "possibly</w>": 3413,
      "2005</w>": 3414,
      "lit</w>": 3415,
      "DE": 3416,
      "bathroom</w>": 3417,
      "Ni": 3418,
      "decent</w>": 3419,
      "east</w>": 3420,
      "moments</w>": 3421,
      "customer</w>": 3422,
      "hood</w>": 3423,
      "ner</w>": 3424,
      "proper</w>": 3425,
      "friday</w>": 3426,
      "ja": 3427,
      "actions</w>": 3428,
      "08</w>": 3429,
      "whose</w>": 3430,
      "PA": 3431,
      "07</w>": 3432,
      "posts</w>": 3433,
      "FB</w>": 3434,
      "#s": 3435,
      "Manager</w>": 3436,
      "Bay</w>": 3437,
      "prefer</w>": 3438,
      "#news</w>": 3439,
      ":squinting_face_with_tongue:</w>": 3440,
      "Martin</w>": 3441,
      "Start</w>": 3442,
      "buddy</w>": 3443,
      "Nike</w>": 3444,
      "self-": 3445,
      ":grinning_squinting_face:</w>": 3446,
      "OR": 3447,
      "Brazil</w>": 3448,
      "AD": 3449,
      "06</w>": 3450,
      "birth</w>": 3451,
      "range</w>": 3452,
      "Says</w>": 3453,
      "BS</w>": 3454,
      "Thats</w>": 3455,
      "ful</w>": 3456,
      "exciting</w>": 3457,
      "Tech</w>": 3458,
      "Wanna</w>": 3459,
      "drug</w>": 3460,
      "Temperature</w>": 3461,
      "Years</w>": 3462,
      "holy</w>": 3463,
      "fashion</w>": 3464,
      "extremely</w>": 3465,
      "army</w>": 3466,
      "nasty</w>": 3467,
      "don</w>": 3468,
      "illegal</w>": 3469,
      "dey</w>": 3470,
      "Making</w>": 3471,
      "AL</w>": 3472,
      "Sales</w>": 3473,
      "ery</w>": 3474,
      ":grinning_face_with_big_eyes:</w>": 3475,
      "scored</w>": 3476,
      "#jobs</w>": 3477,
      "BO": 3478,
      "according</w>": 3479,
      "legit</w>": 3480,
      "partner</w>": 3481,
      "forced</w>": 3482,
      "majority</w>": 3483,
      "feat</w>": 3484,
      "conference</w>": 3485,
      "NYC</w>": 3486,
      "Br": 3487,
      "ki": 3488,
      "DON'T</w>": 3489,
      "cats</w>": 3490,
      "Thomas</w>": 3491,
      "animals</w>": 3492,
      "fingers</w>": 3493,
      "Mor": 3494,
      "Office</w>": 3495,
      "Imagine</w>": 3496,
      "accounts</w>": 3497,
      "workout</w>": 3498,
      "memory</w>": 3499,
      "workers</w>": 3500,
      "Grand</w>": 3501,
      "bf</w>": 3502,
      "rec": 3503,
      "2020</w>": 3504,
      "aww</w>": 3505,
      "her": 3506,
      "red": 3507,
      "wing</w>": 3508,
      "ABOUT</w>": 3509,
      "SHE</w>": 3510,
      "DI": 3511,
      "Funny</w>": 3512,
      "disgusting</w>": 3513,
      "Ru": 3514,
      "cheap</w>": 3515,
      "moves</w>": 3516,
      "40": 3517,
      "Inc</w>": 3518,
      "offers</w>": 3519,
      "Final</w>": 3520,
      "Government</w>": 3521,
      "Probably</w>": 3522,
      "wet</w>": 3523,
      "fill</w>": 3524,
      "gunna</w>": 3525,
      "Vintage</w>": 3526,
      "bright</w>": 3527,
      "elected</w>": 3528,
      "Photos</w>": 3529,
      "CD</w>": 3530,
      "ess</w>": 3531,
      "Liam</w>": 3532,
      "ile</w>": 3533,
      "Design</w>": 3534,
      "votes</w>": 3535,
      "hehe</w>": 3536,
      "AP</w>": 3537,
      "Save</w>": 3538,
      "#np</w>": 3539,
      "Support</w>": 3540,
      "medical</w>": 3541,
      "ann": 3542,
      "bomb</w>": 3543,
      "truck</w>": 3544,
      "Los</w>": 3545,
      ":pistol:</w>": 3546,
      "Ab": 3547,
      "ser": 3548,
      "TO": 3549,
      "soooo</w>": 3550,
      "ping</w>": 3551,
      "parties</w>": 3552,
      "Deal</w>": 3553,
      "pi": 3554,
      "Mary</w>": 3555,
      "#coronavirus</w>": 3556,
      "inc": 3557,
      "Democrats</w>": 3558,
      "facebook</w>": 3559,
      "PA</w>": 3560,
      "History</w>": 3561,
      "Law</w>": 3562,
      "ny</w>": 3563,
      ":grinning_face:</w>": 3564,
      "complain</w>": 3565,
      "wash</w>": 3566,
      "26": 3567,
      "MA</w>": 3568,
      "machine</w>": 3569,
      "contract</w>": 3570,
      "CA": 3571,
      "27": 3572,
      "throwing</w>": 3573,
      "breath</w>": 3574,
      "income</w>": 3575,
      "moms</w>": 3576,
      "TODAY</w>": 3577,
      "Phone</w>": 3578,
      "brilliant</w>": 3579,
      "usual</w>": 3580,
      ":green_heart:</w>": 3581,
      "TE</w>": 3582,
      "Boys</w>": 3583,
      "serve</w>": 3584,
      "ear": 3585,
      "SO": 3586,
      "ita</w>": 3587,
      "inspiration</w>": 3588,
      "heaven</w>": 3589,
      "MAKE</w>": 3590,
      "harry</w>": 3591,
      "planned</w>": 3592,
      ":face_with_medical_mask:</w>": 3593,
      "BY</w>": 3594,
      "shift</w>": 3595,
      "surveys</w>": 3596,
      ":grimacing_face:</w>": 3597,
      "texts</w>": 3598,
      "effect</w>": 3599,
      "sees</w>": 3600,
      "DA</w>": 3601,
      "impact</w>": 3602,
      "Dude</w>": 3603,
      "BA": 3604,
      "MAN</w>": 3605,
      "bike</w>": 3606,
      "ses</w>": 3607,
      "hanging</w>": 3608,
      "ary</w>": 3609,
      "covered</w>": 3610,
      "★</w>": 3611,
      "pro</w>": 3612,
      "despite</w>": 3613,
      "za</w>": 3614,
      "planet</w>": 3615,
      "journey</w>": 3616,
      "anti-": 3617,
      "reached</w>": 3618,
      "Canadian</w>": 3619,
      "ini</w>": 3620,
      "mistakes</w>": 3621,
      "07": 3622,
      "pulled</w>": 3623,
      "Sex</w>": 3624,
      "rap</w>": 3625,
      "growth</w>": 3626,
      "con</w>": 3627,
      "war": 3628,
      "master</w>": 3629,
      "tra": 3630,
      "RIGHT</w>": 3631,
      "OFF</w>": 3632,
      "ot": 3633,
      "studio</w>": 3634,
      "modern</w>": 3635,
      "Ber": 3636,
      "lord</w>": 3637,
      "Kevin</w>": 3638,
      "freedom</w>": 3639,
      "pieces</w>": 3640,
      "economy</w>": 3641,
      "sy": 3642,
      "multiple</w>": 3643,
      "Town</w>": 3644,
      "Box</w>": 3645,
      "#f": 3646,
      "remind</w>": 3647,
      "asks</w>": 3648,
      "crew</w>": 3649,
      "phones</w>": 3650,
      "talkin</w>": 3651,
      "ches</w>": 3652,
      "Festival</w>": 3653,
      "Blog</w>": 3654,
      "becomes</w>": 3655,
      "finals</w>": 3656,
      "marriage</w>": 3657,
      "expensive</w>": 3658,
      "jk</w>": 3659,
      "violence</w>": 3660,
      "threw</w>": 3661,
      "hh</w>": 3662,
      "beats</w>": 3663,
      "tattoo</w>": 3664,
      "ane</w>": 3665,
      "otherwise</w>": 3666,
      "#MTVHottest</w>": 3667,
      "ud": 3668,
      "ups</w>": 3669,
      "technology</w>": 3670,
      "Although</w>": 3671,
      "dollars</w>": 3672,
      "attempt</w>": 3673,
      "generation</w>": 3674,
      "Sale</w>": 3675,
      "Perfect</w>": 3676,
      "web</w>": 3677,
      "updates</w>": 3678,
      "+": 3679,
      "é": 3680,
      "Edition</w>": 3681,
      "Lake</w>": 3682,
      "animal</w>": 3683,
      "Xbox</w>": 3684,
      "continues</w>": 3685,
      "Ireland</w>": 3686,
      "absolute</w>": 3687,
      "ears</w>": 3688,
      "ata</w>": 3689,
      "Lots</w>": 3690,
      "Change</w>": 3691,
      "#nowplaying</w>": 3692,
      "empty</w>": 3693,
      "reported</w>": 3694,
      "bo</w>": 3695,
      "TOO</w>": 3696,
      "constantly</w>": 3697,
      "Project</w>": 3698,
      "REAL</w>": 3699,
      "int": 3700,
      "laws</w>": 3701,
      "airport</w>": 3702,
      "Ja": 3703,
      "#d": 3704,
      "safety</w>": 3705,
      "degree</w>": 3706,
      "Williams</w>": 3707,
      "squad</w>": 3708,
      "finger</w>": 3709,
      "bra": 3710,
      "Union</w>": 3711,
      "Mi": 3712,
      "Dark</w>": 3713,
      "immediately</w>": 3714,
      "va</w>": 3715,
      "district</w>": 3716,
      "host</w>": 3717,
      "hitting</w>": 3718,
      "ada</w>": 3719,
      "ja</w>": 3720,
      "river</w>": 3721,
      "USD</w>": 3722,
      "Nigeria</w>": 3723,
      "asshole</w>": 3724,
      "nor</w>": 3725,
      "magic</w>": 3726,
      "Ask</w>": 3727,
      "LA": 3728,
      "artists</w>": 3729,
      "28": 3730,
      "Prince</w>": 3731,
      "Card</w>": 3732,
      "Wars</w>": 3733,
      "IG</w>": 3734,
      "all": 3735,
      "terms</w>": 3736,
      "shout</w>": 3737,
      "sl": 3738,
      "a-": 3739,
      "Ver": 3740,
      "remain</w>": 3741,
      "Body</w>": 3742,
      "ics</w>": 3743,
      "Run</w>": 3744,
      "bear</w>": 3745,
      "'S</w>": 3746,
      "raised</w>": 3747,
      "areas</w>": 3748,
      "increase</w>": 3749,
      "Santa</w>": 3750,
      "dy": 3751,
      "Tr": 3752,
      "smoking</w>": 3753,
      "doin</w>": 3754,
      "Min": 3755,
      "Retweet</w>": 3756,
      "marketing</w>": 3757,
      "Episode</w>": 3758,
      "Lu": 3759,
      "talented</w>": 3760,
      "invite</w>": 3761,
      "ators</w>": 3762,
      "customers</w>": 3763,
      "Sal": 3764,
      ";-)</w>": 3765,
      "breaks</w>": 3766,
      "sisters</w>": 3767,
      "ists</w>": 3768,
      "bridge</w>": 3769,
      "Tri": 3770,
      "friendly</w>": 3771,
      "spirit</w>": 3772,
      "ordered</w>": 3773,
      "Them</w>": 3774,
      "#In": 3775,
      "END.OF.DOCUMENT</w>": 3776,
      "flying</w>": 3777,
      "non</w>": 3778,
      "Her": 3779,
      "Makes</w>": 3780,
      "Ga": 3781,
      "Water</w>": 3782,
      "adorable</w>": 3783,
      "Class</w>": 3784,
      "Inter": 3785,
      "Trust</w>": 3786,
      "ca</w>": 3787,
      "management</w>": 3788,
      "ized</w>": 3789,
      "leads</w>": 3790,
      "disappointed</w>": 3791,
      "reminds</w>": 3792,
      "Press</w>": 3793,
      "marry</w>": 3794,
      "justice</w>": 3795,
      "Tra": 3796,
      "-R": 3797,
      "William</w>": 3798,
      "throughout</w>": 3799,
      "ine": 3800,
      "GA</w>": 3801,
      "cried</w>": 3802,
      "nature</w>": 3803,
      "mentioned</w>": 3804,
      "you": 3805,
      "52</w>": 3806,
      "studying</w>": 3807,
      "Drake</w>": 3808,
      "mat": 3809,
      "billion</w>": 3810,
      "laptop</w>": 3811,
      "grateful</w>": 3812,
      "Bal": 3813,
      "smiling</w>": 3814,
      "»</w>": 3815,
      "crisis</w>": 3816,
      "fe": 3817,
      "kers</w>": 3818,
      "by": 3819,
      "arrested</w>": 3820,
      "location</w>": 3821,
      "don": 3822,
      "hai</w>": 3823,
      "d-": 3824,
      "movement</w>": 3825,
      "younger</w>": 3826,
      "6th</w>": 3827,
      "section</w>": 3828,
      "dope</w>": 3829,
      "ano</w>": 3830,
      "background</w>": 3831,
      "prices</w>": 3832,
      "grab</w>": 3833,
      "Bar</w>": 3834,
      "Sign</w>": 3835,
      "features</w>": 3836,
      "DID</w>": 3837,
      "crowd</w>": 3838,
      "designed</w>": 3839,
      "lin</w>": 3840,
      "argument</w>": 3841,
      "instagram</w>": 3842,
      "Gaga</w>": 3843,
      "Gra": 3844,
      "SC": 3845,
      "prison</w>": 3846,
      "Rose</w>": 3847,
      "reaction</w>": 3848,
      "iz": 3849,
      "Fashion</w>": 3850,
      "direct</w>": 3851,
      "debut</w>": 3852,
      "horse</w>": 3853,
      "Samsung</w>": 3854,
      "Col": 3855,
      "#the": 3856,
      "anger</w>": 3857,
      "NO": 3858,
      "dangerous</w>": 3859,
      "launch</w>": 3860,
      "nt</w>": 3861,
      "backup</w>": 3862,
      "steal</w>": 3863,
      "#No": 3864,
      "sy</w>": 3865,
      "oo</w>": 3866,
      "Im": 3867,
      "drinks</w>": 3868,
      "BTS</w>": 3869,
      "Nation</w>": 3870,
      "THANK</w>": 3871,
      "Minister</w>": 3872,
      "LE": 3873,
      "lonely</w>": 3874,
      "Line</w>": 3875,
      "pretend</w>": 3876,
      "According</w>": 3877,
      "bread</w>": 3878,
      "Star": 3879,
      "HIM</w>": 3880,
      "Dog</w>": 3881,
      "everytime</w>": 3882,
      "BE": 3883,
      "decisions</w>": 3884,
      "global</w>": 3885,
      "isnt</w>": 3886,
      "kes</w>": 3887,
      "somehow</w>": 3888,
      "grandma</w>": 3889,
      "Act</w>": 3890,
      "Spring</w>": 3891,
      "gra": 3892,
      "various</w>": 3893,
      "solo</w>": 3894,
      "hearts</w>": 3895,
      "guns</w>": 3896,
      "notes</w>": 3897,
      "pure</w>": 3898,
      "yo": 3899,
      "Thought</w>": 3900,
      "=)</w>": 3901,
      "FL</w>": 3902,
      "claims</w>": 3903,
      "69</w>": 3904,
      "cus</w>": 3905,
      "Houston</w>": 3906,
      "Ed</w>": 3907,
      "religion</w>": 3908,
      "switch</w>": 3909,
      "Muslim</w>": 3910,
      "Italian</w>": 3911,
      "arrived</w>": 3912,
      "Royal</w>": 3913,
      "library</w>": 3914,
      "Network</w>": 3915,
      "29": 3916,
      "Irish</w>": 3917,
      "#g": 3918,
      "100": 3919,
      "request</w>": 3920,
      "Global</w>": 3921,
      "Austin</w>": 3922,
      "foreign</w>": 3923,
      "respond</w>": 3924,
      "campus</w>": 3925,
      "insane</w>": 3926,
      "comfortable</w>": 3927,
      "Future</w>": 3928,
      "crash</w>": 3929,
      "lame</w>": 3930,
      "abuse</w>": 3931,
      "Country</w>": 3932,
      "2004</w>": 3933,
      "#k": 3934,
      "Fun</w>": 3935,
      "ut</w>": 3936,
      "streets</w>": 3937,
      "theres</w>": 3938,
      "honey</w>": 3939,
      "Si": 3940,
      "Coming</w>": 3941,
      "Ac": 3942,
      "Drive</w>": 3943,
      "reports</w>": 3944,
      "ID": 3945,
      "Mac</w>": 3946,
      "limit</w>": 3947,
      "island</w>": 3948,
      "screaming</w>": 3949,
      "lookin</w>": 3950,
      "Spain</w>": 3951,
      "perform</w>": 3952,
      "meal</w>": 3953,
      "wise</w>": 3954,
      "ize</w>": 3955,
      "gg": 3956,
      "feature</w>": 3957,
      "spell</w>": 3958,
      "MP</w>": 3959,
      "ati": 3960,
      "ger</w>": 3961,
      "MS</w>": 3962,
      "2010</w>": 3963,
      "RI": 3964,
      "responsible</w>": 3965,
      "thread</w>": 3966,
      "ah": 3967,
      "HIS</w>": 3968,
      "EST</w>": 3969,
      "ruin</w>": 3970,
      "afford</w>": 3971,
      "ines</w>": 3972,
      "4.": 3973,
      "sets</w>": 3974,
      "inspired</w>": 3975,
      "TH</w>": 3976,
      "shed</w>": 3977,
      "users</w>": 3978,
      "finna</w>": 3979,
      "bra</w>": 3980,
      "tip</w>": 3981,
      "ala</w>": 3982,
      "Wtf</w>": 3983,
      "unique</w>": 3984,
      "THEM</w>": 3985,
      "border</w>": 3986,
      "io</w>": 3987,
      "ara</w>": 3988,
      "Iran</w>": 3989,
      "400</w>": 3990,
      "Meet</w>": 3991,
      "EL": 3992,
      "51</w>": 3993,
      "pr": 3994,
      "Pack</w>": 3995,
      "episodes</w>": 3996,
      "Small</w>": 3997,
      "forces</w>": 3998,
      "Australian</w>": 3999,
      "Waiting</w>": 4000,
      "War": 4001,
      "nervous</w>": 4002,
      "GO": 4003,
      "considering</w>": 4004,
      "Gr": 4005,
      "previous</w>": 4006,
      "punch</w>": 4007,
      "Pls</w>": 4008,
      "bur": 4009,
      "flat</w>": 4010,
      "we": 4011,
      "ger": 4012,
      "ents</w>": 4013,
      "Security</w>": 4014,
      "Wa": 4015,
      "faster</w>": 4016,
      "Senate</w>": 4017,
      "#U": 4018,
      "hy": 4019,
      "Pu": 4020,
      "Over": 4021,
      "honor</w>": 4022,
      "SM": 4023,
      "lo</w>": 4024,
      "Sounds</w>": 4025,
      "theme</w>": 4026,
      "route</w>": 4027,
      "relationships</w>": 4028,
      "mall</w>": 4029,
      "Crazy</w>": 4030,
      "ell": 4031,
      "Mix</w>": 4032,
      "ess": 4033,
      "films</w>": 4034,
      "silly</w>": 4035,
      "our": 4036,
      ":beating_heart:</w>": 4037,
      "aa</w>": 4038,
      "BIG</w>": 4039,
      "SC</w>": 4040,
      "ore</w>": 4041,
      "hates</w>": 4042,
      "DE</w>": 4043,
      "ise</w>": 4044,
      "ena</w>": 4045,
      "target</w>": 4046,
      "TA": 4047,
      "attractive</w>": 4048,
      "DA": 4049,
      "BIRTHDAY</w>": 4050,
      "Public</w>": 4051,
      "Pink</w>": 4052,
      "CNN</w>": 4053,
      "classic</w>": 4054,
      "Cant</w>": 4055,
      "mission</w>": 4056,
      "sugar</w>": 4057,
      "sin</w>": 4058,
      "signs</w>": 4059,
      "Red": 4060,
      "aware</w>": 4061,
      "den": 4062,
      "Award</w>": 4063,
      "1D</w>": 4064,
      "improve</w>": 4065,
      "obvious</w>": 4066,
      "Bur": 4067,
      "Adam</w>": 4068,
      "day": 4069,
      "basic</w>": 4070,
      "Cal": 4071,
      "guide</w>": 4072,
      "Bring</w>": 4073,
      "ica</w>": 4074,
      "with": 4075,
      "drawing</w>": 4076,
      "NA": 4077,
      "entered</w>": 4078,
      "au": 4079,
      "chest</w>": 4080,
      "personally</w>": 4081,
      "IM": 4082,
      "Jim</w>": 4083,
      "06": 4084,
      "Death</w>": 4085,
      "cock</w>": 4086,
      "blind</w>": 4087,
      "Hollywood</w>": 4088,
      "ama</w>": 4089,
      "fb</w>": 4090,
      "cam</w>": 4091,
      "answers</w>": 4092,
      "ical</w>": 4093,
      "managed</w>": 4094,
      "Order</w>": 4095,
      "actor</w>": 4096,
      "-L": 4097,
      "lesson</w>": 4098,
      "mode</w>": 4099,
      "happiest</w>": 4100,
      "bowl</w>": 4101,
      "ffs</w>": 4102,
      "Latest</w>": 4103,
      "Tu": 4104,
      "TR": 4105,
      "Fall</w>": 4106,
      "SS": 4107,
      "sides</w>": 4108,
      "falls</w>": 4109,
      "species</w>": 4110,
      "CEO</w>": 4111,
      "Yea</w>": 4112,
      "mail</w>": 4113,
      "treated</w>": 4114,
      "New": 4115,
      "repeat</w>": 4116,
      "Up": 4117,
      "AA": 4118,
      "Force</w>": 4119,
      "Valley</w>": 4120,
      "guilty</w>": 4121,
      "limited</w>": 4122,
      "accident</w>": 4123,
      "vacation</w>": 4124,
      "aye</w>": 4125,
      "Out": 4126,
      "financial</w>": 4127,
      "Father</w>": 4128,
      "timeline</w>": 4129,
      "Secret</w>": 4130,
      "produced</w>": 4131,
      "Ohio</w>": 4132,
      "7th</w>": 4133,
      "glasses</w>": 4134,
      "chief</w>": 4135,
      "Charles</w>": 4136,
      "crack</w>": 4137,
      "levels</w>": 4138,
      "vo": 4139,
      "stayed</w>": 4140,
      "ns</w>": 4141,
      "suddenly</w>": 4142,
      "caused</w>": 4143,
      "dare</w>": 4144,
      "dec": 4145,
      "Council</w>": 4146,
      "ill": 4147,
      "teaching</w>": 4148,
      "Tony</w>": 4149,
      "OM": 4150,
      "mal": 4151,
      "ants</w>": 4152,
      "Bra": 4153,
      "tiny</w>": 4154,
      "Kelly</w>": 4155,
      "Bowl</w>": 4156,
      "ce</w>": 4157,
      "mirror</w>": 4158,
      "saving</w>": 4159,
      "Hu": 4160,
      "ist": 4161,
      "Dallas</w>": 4162,
      "contest</w>": 4163,
      "largest</w>": 4164,
      "dollar</w>": 4165,
      "(;</w>": 4166,
      "ti</w>": 4167,
      "System</w>": 4168,
      "sn": 4169,
      "highly</w>": 4170,
      "fr": 4171,
      "any": 4172,
      "LED</w>": 4173,
      "writer</w>": 4174,
      "Camera</w>": 4175,
      "slept</w>": 4176,
      "excellent</w>": 4177,
      "tries</w>": 4178,
      "confirmed</w>": 4179,
      "candy</w>": 4180,
      "digital</w>": 4181,
      ":persevering_face:</w>": 4182,
      "boat</w>": 4183,
      "Fi": 4184,
      "dressed</w>": 4185,
      "bestfriend</w>": 4186,
      "Chief</w>": 4187,
      "Asian</w>": 4188,
      "coz</w>": 4189,
      "shorts</w>": 4190,
      "85</w>": 4191,
      "unfollow</w>": 4192,
      "AC</w>": 4193,
      "les": 4194,
      "region</w>": 4195,
      "semester</w>": 4196,
      "print</w>": 4197,
      "09": 4198,
      "Guy</w>": 4199,
      "solid</w>": 4200,
      "EC": 4201,
      "WOULD</w>": 4202,
      "ik</w>": 4203,
      "recommend</w>": 4204,
      "bby</w>": 4205,
      "millions</w>": 4206,
      "homie</w>": 4207,
      "Mobile</w>": 4208,
      "kar": 4209,
      "sho": 4210,
      "cho": 4211,
      "35": 4212,
      "Ill</w>": 4213,
      "zz": 4214,
      "tal": 4215,
      "fellow</w>": 4216,
      "Shop</w>": 4217,
      "NEWS</w>": 4218,
      "ig</w>": 4219,
      "Angeles</w>": 4220,
      "plenty</w>": 4221,
      "1-": 4222,
      "ate": 4223,
      "specific</w>": 4224,
      "dem</w>": 4225,
      "obsessed</w>": 4226,
      "passing</w>": 4227,
      "loads</w>": 4228,
      "Children</w>": 4229,
      "Mac": 4230,
      "Hair</w>": 4231,
      "UR": 4232,
      "yard</w>": 4233,
      "fin": 4234,
      "Science</w>": 4235,
      "Without</w>": 4236,
      "sun": 4237,
      "Max</w>": 4238,
      "platform</w>": 4239,
      "bro": 4240,
      "amp</w>": 4241,
      "standard</w>": 4242,
      "setting</w>": 4243,
      "path</w>": 4244,
      "owner</w>": 4245,
      "LE</w>": 4246,
      "progress</w>": 4247,
      "Ladies</w>": 4248,
      "Tim</w>": 4249,
      "TI": 4250,
      "knock</w>": 4251,
      "Especially</w>": 4252,
      "tions</w>": 4253,
      "Artist</w>": 4254,
      "nope</w>": 4255,
      "Sweet</w>": 4256,
      "ERS</w>": 4257,
      "Working</w>": 4258,
      "def</w>": 4259,
      "BITCH</w>": 4260,
      "boobs</w>": 4261,
      "doe</w>": 4262,
      "STILL</w>": 4263,
      "Imma</w>": 4264,
      "Republican</w>": 4265,
      "ck</w>": 4266,
      "Almost</w>": 4267,
      "smiles</w>": 4268,
      "square</w>": 4269,
      "#COVID19</w>": 4270,
      "draft</w>": 4271,
      "uk</w>": 4272,
      "alcohol</w>": 4273,
      "hall</w>": 4274,
      "fired</w>": 4275,
      "hop</w>": 4276,
      "Ford</w>": 4277,
      "des": 4278,
      "dia</w>": 4279,
      "Name</w>": 4280,
      "ber</w>": 4281,
      "1,": 4282,
      "000</w>": 4283,
      "Microsoft</w>": 4284,
      "neither</w>": 4285,
      "throat</w>": 4286,
      "parking</w>": 4287,
      "kills</w>": 4288,
      "certainly</w>": 4289,
      "ach": 4290,
      "Vi": 4291,
      "cr": 4292,
      ":hugging_face:</w>": 4293,
      "recorded</w>": 4294,
      "WORLD</w>": 4295,
      "cheer</w>": 4296,
      "Thinking</w>": 4297,
      "Toronto</w>": 4298,
      "And": 4299,
      "favor</w>": 4300,
      "orange</w>": 4301,
      "distance</w>": 4302,
      "sen": 4303,
      "Sad</w>": 4304,
      "Fa": 4305,
      "loose</w>": 4306,
      "Super": 4307,
      "56</w>": 4308,
      "prepared</w>": 4309,
      "PL": 4310,
      "assume</w>": 4311,
      "victory</w>": 4312,
      "youtube</w>": 4313,
      "physical</w>": 4314,
      "sleepy</w>": 4315,
      "rare</w>": 4316,
      "Dance</w>": 4317,
      "ure</w>": 4318,
      "UR</w>": 4319,
      "necessary</w>": 4320,
      "pips</w>": 4321,
      "appeared</w>": 4322,
      "gar": 4323,
      "TT": 4324,
      "OUR</w>": 4325,
      "Swift</w>": 4326,
      ":raised_fist:</w>": 4327,
      "Favorite</w>": 4328,
      "Nick</w>": 4329,
      "treatment</w>": 4330,
      "ak</w>": 4331,
      "shake</w>": 4332,
      "lied</w>": 4333,
      "highest</w>": 4334,
      "Via</w>": 4335,
      "Day": 4336,
      "DVD</w>": 4337,
      "havent</w>": 4338,
      "Brexit</w>": 4339,
      "singer</w>": 4340,
      "shape</w>": 4341,
      "fixed</w>": 4342,
      "begins</w>": 4343,
      "cc</w>": 4344,
      "Co</w>": 4345,
      "indeed</w>": 4346,
      "tos</w>": 4347,
      "wings</w>": 4348,
      "lea": 4349,
      "ona</w>": 4350,
      "#j": 4351,
      "in-": 4352,
      "goodbye</w>": 4353,
      "FM</w>": 4354,
      "Under</w>": 4355,
      "cooking</w>": 4356,
      "seven</w>": 4357,
      "ET</w>": 4358,
      "ation": 4359,
      "sal": 4360,
      "tl</w>": 4361,
      "Somebody</w>": 4362,
      "ob": 4363,
      "solution</w>": 4364,
      "Data</w>": 4365,
      "paint</w>": 4366,
      "TY</w>": 4367,
      "bath</w>": 4368,
      "BU": 4369,
      "99": 4370,
      "72</w>": 4371,
      "Yep</w>": 4372,
      "pleasure</w>": 4373,
      "outfit</w>": 4374,
      "53</w>": 4375,
      "ung</w>": 4376,
      "ef": 4377,
      "describe</w>": 4378,
      "insurance</w>": 4379,
      "ri</w>": 4380,
      "finds</w>": 4381,
      "SS</w>": 4382,
      "ws</w>": 4383,
      "COME</w>": 4384,
      "purchase</w>": 4385,
      ":frowning_face:</w>": 4386,
      "youth</w>": 4387,
      "hurry</w>": 4388,
      "Fucking</w>": 4389,
      "strange</w>": 4390,
      "Guide</w>": 4391,
      "whoever</w>": 4392,
      "Low</w>": 4393,
      "8th</w>": 4394,
      "HA</w>": 4395,
      "Lost</w>": 4396,
      "grew</w>": 4397,
      "#oomf</w>": 4398,
      "individual</w>": 4399,
      "exact</w>": 4400,
      "Gar": 4401,
      "IT'S</w>": 4402,
      "Nov</w>": 4403,
      "economic</w>": 4404,
      "christmas</w>": 4405,
      "Bob</w>": 4406,
      "tan</w>": 4407,
      "☆</w>": 4408,
      "gate</w>": 4409,
      "attacks</w>": 4410,
      "guitar</w>": 4411,
      "compared</w>": 4412,
      "personality</w>": 4413,
      "EA": 4414,
      "creative</w>": 4415,
      "chair</w>": 4416,
      "meat</w>": 4417,
      "Hit</w>": 4418,
      "justin</w>": 4419,
      "ker": 4420,
      "subject</w>": 4421,
      "54</w>": 4422,
      "ney</w>": 4423,
      "required</w>": 4424,
      "ASS</w>": 4425,
      "Gift</w>": 4426,
      "Jan</w>": 4427,
      "5.": 4428,
      "ot</w>": 4429,
      "argue</w>": 4430,
      "Beat</w>": 4431,
      "headed</w>": 4432,
      "flow</w>": 4433,
      "hand": 4434,
      "Hotel</w>": 4435,
      "Face</w>": 4436,
      "stronger</w>": 4437,
      "150</w>": 4438,
      "Test</w>": 4439,
      "EX": 4440,
      "complaining</w>": 4441,
      "66</w>": 4442,
      "bi</w>": 4443,
      "signing</w>": 4444,
      "wan": 4445,
      "3D</w>": 4446,
      "WA": 4447,
      "tune</w>": 4448,
      "chose</w>": 4449,
      "plant</w>": 4450,
      "PEOPLE</w>": 4451,
      "Community</w>": 4452,
      "Sk": 4453,
      "fucks</w>": 4454,
      "GB</w>": 4455,
      "demand</w>": 4456,
      "RIP</w>": 4457,
      "Literally</w>": 4458,
      "kicked</w>": 4459,
      "chances</w>": 4460,
      "friendship</w>": 4461,
      "#Y": 4462,
      "projects</w>": 4463,
      "⠀</w>": 4464,
      "trailer</w>": 4465,
      "walks</w>": 4466,
      "restaurant</w>": 4467,
      "Wonder</w>": 4468,
      "star": 4469,
      "hrs</w>": 4470,
      "acts</w>": 4471,
      "blast</w>": 4472,
      "wasnt</w>": 4473,
      "Pe": 4474,
      "failure</w>": 4475,
      "trending</w>": 4476,
      "Ass</w>": 4477,
      "Listening</w>": 4478,
      "avi</w>": 4479,
      "wishes</w>": 4480,
      "concept</w>": 4481,
      "Michigan</w>": 4482,
      "Britain</w>": 4483,
      "UN</w>": 4484,
      "pet</w>": 4485,
      "humans</w>": 4486,
      "hype</w>": 4487,
      "pri": 4488,
      "yellow</w>": 4489,
      "ai</w>": 4490,
      "ind": 4491,
      "invited</w>": 4492,
      "ish": 4493,
      "tall</w>": 4494,
      "Services</w>": 4495,
      "degrees</w>": 4496,
      "returned</w>": 4497,
      "NA</w>": 4498,
      "po</w>": 4499,
      "patient</w>": 4500,
      "false</w>": 4501,
      "central</w>": 4502,
      "Richard</w>": 4503,
      "removed</w>": 4504,
      "laying</w>": 4505,
      "pathetic</w>": 4506,
      "fave</w>": 4507,
      "Four</w>": 4508,
      "45": 4509,
      "understanding</w>": 4510,
      ":downcast_face_with_sweat:</w>": 4511,
      "booty</w>": 4512,
      "discuss</w>": 4513,
      "locked</w>": 4514,
      "goodnight</w>": 4515,
      "seats</w>": 4516,
      "Apparently</w>": 4517,
      "tic</w>": 4518,
      "van</w>": 4519,
      "innocent</w>": 4520,
      "benefits</w>": 4521,
      "thousand</w>": 4522,
      "IL</w>": 4523,
      "VA</w>": 4524,
      "riding</w>": 4525,
      "continued</w>": 4526,
      "options</w>": 4527,
      "Store</w>": 4528,
      "ning</w>": 4529,
      "55": 4530,
      "Galaxy</w>": 4531,
      "Dress</w>": 4532,
      "rough</w>": 4533,
      "Jay</w>": 4534,
      "vision</w>": 4535,
      "cleaning</w>": 4536,
      "universe</w>": 4537,
      "tion</w>": 4538,
      "streaming</w>": 4539,
      "ew</w>": 4540,
      "damage</w>": 4541,
      "hating</w>": 4542,
      "It": 4543,
      "ching</w>": 4544,
      "shared</w>": 4545,
      "Jersey</w>": 4546,
      "mass</w>": 4547,
      "sel": 4548,
      "diet</w>": 4549,
      "mf</w>": 4550,
      "cutest</w>": 4551,
      "leadership</w>": 4552,
      "laughed</w>": 4553,
      "IC</w>": 4554,
      "hockey</w>": 4555,
      "05": 4556,
      "gf</w>": 4557,
      "Cu": 4558,
      "gen": 4559,
      "District</w>": 4560,
      "television</w>": 4561,
      ":angry_face:</w>": 4562,
      "Henry</w>": 4563,
      "Film</w>": 4564,
      "36": 4565,
      "Enter</w>": 4566,
      "pride</w>": 4567,
      "57</w>": 4568,
      "rape</w>": 4569,
      "2011</w>": 4570,
      "listened</w>": 4571,
      "bags</w>": 4572,
      "owned</w>": 4573,
      "confidence</w>": 4574,
      "Single</w>": 4575,
      "shown</w>": 4576,
      "appear</w>": 4577,
      "Bl": 4578,
      "He": 4579,
      "ya": 4580,
      "ali": 4581,
      "Can": 4582,
      "ong": 4583,
      "Found</w>": 4584,
      "#Ask": 4585,
      "toilet</w>": 4586,
      "on-": 4587,
      "refuse</w>": 4588,
      "✧</w>": 4589,
      "Jason</w>": 4590,
      "app": 4591,
      "iOS</w>": 4592,
      "Classic</w>": 4593,
      "types</w>": 4594,
      "sts</w>": 4595,
      "dudes</w>": 4596,
      "Ke": 4597,
      "Five</w>": 4598,
      "garden</w>": 4599,
      "ignorant</w>": 4600,
      "mini</w>": 4601,
      "Scotland</w>": 4602,
      "::</w>": 4603,
      "Sure</w>": 4604,
      "98</w>": 4605,
      "yay</w>": 4606,
      "Leave</w>": 4607,
      "dates</w>": 4608,
      "flag</w>": 4609,
      "includes</w>": 4610,
      "OO": 4611,
      "é</w>": 4612,
      "juice</w>": 4613,
      "realise</w>": 4614,
      "Airport</w>": 4615,
      "Ur</w>": 4616,
      "BR": 4617,
      "wave</w>": 4618,
      "deals</w>": 4619,
      "WAY</w>": 4620,
      "citizens</w>": 4621,
      "addition</w>": 4622,
      "remembered</w>": 4623,
      "jeans</w>": 4624,
      "acc</w>": 4625,
      "62</w>": 4626,
      "bea": 4627,
      "Western</w>": 4628,
      "IA</w>": 4629,
      "ble</w>": 4630,
      "ale</w>": 4631,
      "Nicki</w>": 4632,
      "Feeling</w>": 4633,
      "zero</w>": 4634,
      "bang</w>": 4635,
      "director</w>": 4636,
      "ick": 4637,
      "apple</w>": 4638,
      "FA": 4639,
      "88</w>": 4640,
      "kk": 4641,
      "trend</w>": 4642,
      "golf</w>": 4643,
      "ters</w>": 4644,
      "directly</w>": 4645,
      "theory</w>": 4646,
      "trial</w>": 4647,
      "heading</w>": 4648,
      "Easy</w>": 4649,
      "ik": 4650,
      "2003</w>": 4651,
      "mag": 4652,
      "Daniel</w>": 4653,
      "CANT</w>": 4654,
      "des</w>": 4655,
      "Wayne</w>": 4656,
      "aid</w>": 4657,
      "Mag": 4658,
      "Sar": 4659,
      "Republicans</w>": 4660,
      ":confounded_face:</w>": 4661,
      "SK": 4662,
      "Carolina</w>": 4663,
      "CR": 4664,
      "ster": 4665,
      "bands</w>": 4666,
      "Travel</w>": 4667,
      "budget</w>": 4668,
      "congrats</w>": 4669,
      "Went</w>": 4670,
      "Winter</w>": 4671,
      "testing</w>": 4672,
      "CC</w>": 4673,
      "candidate</w>": 4674,
      "midnight</w>": 4675,
      "Poshmark</w>": 4676,
      "idol</w>": 4677,
      "deleted</w>": 4678,
      "Brand</w>": 4679,
      "Left</w>": 4680,
      "advantage</w>": 4681,
      "threat</w>": 4682,
      "concerned</w>": 4683,
      "destroy</w>": 4684,
      "connection</w>": 4685,
      "manage</w>": 4686,
      "s.": 4687,
      "ALWAYS</w>": 4688,
      "lane</w>": 4689,
      "Wh": 4690,
      "dr": 4691,
      "guard</w>": 4692,
      "forgive</w>": 4693,
      "slightly</w>": 4694,
      "anc": 4695,
      "Space</w>": 4696,
      "map</w>": 4697,
      ":woman_dancing:</w>": 4698,
      "user</w>": 4699,
      "Remix</w>": 4700,
      "orders</w>": 4701,
      "survive</w>": 4702,
      "bloody</w>": 4703,
      "fer": 4704,
      "year-old</w>": 4705,
      "Senior</w>": 4706,
      "Band</w>": 4707,
      "charged</w>": 4708,
      "opposite</w>": 4709,
      "LY</w>": 4710,
      "stands</w>": 4711,
      "ny": 4712,
      "awards</w>": 4713,
      "holds</w>": 4714,
      "discovered</w>": 4715,
      "developed</w>": 4716,
      "De</w>": 4717,
      "hel": 4718,
      "Justice</w>": 4719,
      "formed</w>": 4720,
      "property</w>": 4721,
      "37": 4722,
      "zer</w>": 4723,
      "Cam": 4724,
      "ii</w>": 4725,
      "english</w>": 4726,
      "clock</w>": 4727,
      "tor": 4728,
      "Style</w>": 4729,
      "aha</w>": 4730,
      "quarter</w>": 4731,
      "established</w>": 4732,
      "nu": 4733,
      "hardest</w>": 4734,
      "fo": 4735,
      "prom</w>": 4736,
      "Done</w>": 4737,
      "featured</w>": 4738,
      "delivery</w>": 4739,
      "67</w>": 4740,
      "emotions</w>": 4741,
      "Atlanta</w>": 4742,
      "KS</w>": 4743,
      "ten": 4744,
      "blonde</w>": 4745,
      "Ice</w>": 4746,
      "Lmfao</w>": 4747,
      "EM": 4748,
      "Challenge</w>": 4749,
      "List</w>": 4750,
      "cancelled</w>": 4751,
      "replace</w>": 4752,
      "apartment</w>": 4753,
      "particular</w>": 4754,
      "Sun": 4755,
      "careful</w>": 4756,
      "cha</w>": 4757,
      "Yet</w>": 4758,
      "vid</w>": 4759,
      "Research</w>": 4760,
      "creating</w>": 4761,
      "59</w>": 4762,
      "ella</w>": 4763,
      "shoulder</w>": 4764,
      "ci": 4765,
      "63</w>": 4766,
      "Director</w>": 4767,
      "Windows</w>": 4768,
      "Taking</w>": 4769,
      "Ball</w>": 4770,
      "earn</w>": 4771,
      "Ser": 4772,
      "uncle</w>": 4773,
      ":thumbs_down:</w>": 4774,
      "Station</w>": 4775,
      "Original</w>": 4776,
      "Kit</w>": 4777,
      "Frank</w>": 4778,
      "Bro</w>": 4779,
      "material</w>": 4780,
      "↺</w>": 4781,
      "Than</w>": 4782,
      "beating</w>": 4783,
      "bal": 4784,
      "attend</w>": 4785,
      "sur": 4786,
      "bite</w>": 4787,
      "appears</w>": 4788,
      "ely</w>": 4789,
      "offered</w>": 4790,
      "cuts</w>": 4791,
      "luv</w>": 4792,
      "ME": 4793,
      "momma</w>": 4794,
      "govt</w>": 4795,
      "pping</w>": 4796,
      "Point</w>": 4797,
      "ourselves</w>": 4798,
      "58</w>": 4799,
      "injury</w>": 4800,
      "360</w>": 4801,
      "hhh</w>": 4802,
      "topic</w>": 4803,
      "ire</w>": 4804,
      "ically</w>": 4805,
      "Dan</w>": 4806,
      "Pal": 4807,
      "lin": 4808,
      "#h": 4809,
      "seasons</w>": 4810,
      "We": 4811,
      "GOING</w>": 4812,
      "ts": 4813,
      "LS</w>": 4814,
      "mile</w>": 4815,
      "DO": 4816,
      "Fu": 4817,
      "checking</w>": 4818,
      "Half</w>": 4819,
      "WOW</w>": 4820,
      "whom</w>": 4821,
      "jack</w>": 4822,
      "Management</w>": 4823,
      "hmm</w>": 4824,
      "ering</w>": 4825,
      "With": 4826,
      "strike</w>": 4827,
      "ships</w>": 4828,
      "jam</w>": 4829,
      "guest</w>": 4830,
      "Shi": 4831,
      "med</w>": 4832,
      "mixed</w>": 4833,
      "ruined</w>": 4834,
      "liking</w>": 4835,
      "sha</w>": 4836,
      "HOT</w>": 4837,
      "Send</w>": 4838,
      "upcoming</w>": 4839,
      "Education</w>": 4840,
      ",000</w>": 4841,
      "ug": 4842,
      "cookies</w>": 4843,
      "prayers</w>": 4844,
      "48": 4845,
      "22": 4846,
      "Link</w>": 4847,
      "updated</w>": 4848,
      "systems</w>": 4849,
      "cal": 4850,
      "enemy</w>": 4851,
      "Seems</w>": 4852,
      "#shopmycloset</w>": 4853,
      "shine</w>": 4854,
      "sometime</w>": 4855,
      "ip": 4856,
      "anxiety</w>": 4857,
      "loyal</w>": 4858,
      "sigh</w>": 4859,
      "author</w>": 4860,
      "ie": 4861,
      "pee</w>": 4862,
      "hill</w>": 4863,
      "badly</w>": 4864,
      "YO": 4865,
      "anime</w>": 4866,
      "ow</w>": 4867,
      "ea</w>": 4868,
      "lift</w>": 4869,
      "capital</w>": 4870,
      "Code</w>": 4871,
      "bri": 4872,
      "delicious</w>": 4873,
      "IL": 4874,
      ":double_exclamation_mark:</w>": 4875,
      "thousands</w>": 4876,
      "Ray</w>": 4877,
      "Em": 4878,
      "selfie</w>": 4879,
      "Easter</w>": 4880,
      "wo": 4881,
      "items</w>": 4882,
      "creepy</w>": 4883,
      "Board</w>": 4884,
      "surgery</w>": 4885,
      "gang</w>": 4886,
      "clue</w>": 4887,
      "Stars</w>": 4888,
      "tar": 4889,
      "cher</w>": 4890,
      "Bout</w>": 4891,
      "virus</w>": 4892,
      "king": 4893,
      ":smiling_face_with_halo:</w>": 4894,
      "edge</w>": 4895,
      "Kingdom</w>": 4896,
      "Room</w>": 4897,
      "ATION</w>": 4898,
      "ving</w>": 4899,
      "GUYS</w>": 4900,
      "religious</w>": 4901,
      "Dar": 4902,
      "ack": 4903,
      "pin</w>": 4904,
      "Ben": 4905,
      "Ki": 4906,
      "Exactly</w>": 4907,
      "giant</w>": 4908,
      "ST</w>": 4909,
      "boo": 4910,
      "Fair</w>": 4911,
      "xx": 4912,
      "legend</w>": 4913,
      "colors</w>": 4914,
      "tongue</w>": 4915,
      "ash</w>": 4916,
      "Championship</w>": 4917,
      "benefit</w>": 4918,
      "Syria</w>": 4919,
      "couch</w>": 4920,
      "properly</w>": 4921,
      "pitch</w>": 4922,
      "AMAZING</w>": 4923,
      "tournament</w>": 4924,
      "connect</w>": 4925,
      "Turn</w>": 4926,
      "Department</w>": 4927,
      "Georgia</w>": 4928,
      "92</w>": 4929,
      "cell</w>": 4930,
      "ilysm</w>": 4931,
      "flowers</w>": 4932,
      "HATE</w>": 4933,
      "ven": 4934,
      "#My": 4935,
      ":backhand_index_pointing_right:</w>": 4936,
      "5SOS</w>": 4937,
      "shy</w>": 4938,
      "EVEN</w>": 4939,
      "taxes</w>": 4940,
      "novel</w>": 4941,
      "expecting</w>": 4942,
      "SU": 4943,
      "ink</w>": 4944,
      "pan": 4945,
      "200": 4946,
      "Round</w>": 4947,
      "38": 4948,
      "AF</w>": 4949,
      "ys": 4950,
      "bb</w>": 4951,
      "101</w>": 4952,
      "ched</w>": 4953,
      "super": 4954,
      "Mis": 4955,
      "03": 4956,
      "EVERYONE</w>": 4957,
      "icon</w>": 4958,
      "supporters</w>": 4959,
      "Dream</w>": 4960,
      "MTV</w>": 4961,
      ":slightly_smiling_face:</w>": 4962,
      "Conference</w>": 4963,
      "EN</w>": 4964,
      "Sleep</w>": 4965,
      "lic": 4966,
      "96</w>": 4967,
      "Were</w>": 4968,
      "approach</w>": 4969,
      "independent</w>": 4970,
      "serving</w>": 4971,
      "Living</w>": 4972,
      "Magic</w>": 4973,
      "pper</w>": 4974,
      "mentions</w>": 4975,
      "Virginia</w>": 4976,
      "Golden</w>": 4977,
      "U.S.</w>": 4978,
      "Sam": 4979,
      "cum</w>": 4980,
      "perhaps</w>": 4981,
      "picking</w>": 4982,
      "tracks</w>": 4983,
      "princess</w>": 4984,
      "97</w>": 4985,
      "At": 4986,
      "anna</w>": 4987,
      "stan</w>": 4988,
      "zy</w>": 4989,
      "tom": 4990,
      "Al</w>": 4991,
      "Leather</w>": 4992,
      "ank": 4993,
      "Sarah</w>": 4994,
      "shirts</w>": 4995,
      "scenes</w>": 4996,
      "air": 4997,
      "edition</w>": 4998,
      "6.": 4999,
      "elections</w>": 5000,
      "criminal</w>": 5001,
      "curious</w>": 5002,
      "anytime</w>": 5003,
      "breathe</w>": 5004,
      "pages</w>": 5005,
      "Peace</w>": 5006,
      "apps</w>": 5007,
      "Forever</w>": 5008,
      "centre</w>": 5009,
      "sin": 5010,
      "TA</w>": 5011,
      "Pr": 5012,
      "77</w>": 5013,
      "col": 5014,
      "str": 5015,
      "hundred</w>": 5016,
      "7.": 5017,
      "Into</w>": 5018,
      "influence</w>": 5019,
      "sons</w>": 5020,
      "Hol": 5021,
      "Album</w>": 5022,
      "att": 5023,
      "nowhere</w>": 5024,
      "perfectly</w>": 5025,
      "work": 5026,
      "2001</w>": 5027,
      "Feb</w>": 5028,
      "FBI</w>": 5029,
      "Andrew</w>": 5030,
      "scream</w>": 5031,
      "uni</w>": 5032,
      "trick</w>": 5033,
      "birds</w>": 5034,
      "0.00</w>": 5035,
      "Far": 5036,
      "minds</w>": 5037,
      "cities</w>": 5038,
      "ro</w>": 5039,
      "Reuters</w>": 5040,
      "THERE</w>": 5041,
      "SI": 5042,
      "sake</w>": 5043,
      "Million</w>": 5044,
      "Smart</w>": 5045,
      "magazine</w>": 5046,
      "Wal": 5047,
      "lip</w>": 5048,
      "construction</w>": 5049,
      "TED</w>": 5050,
      "gosh</w>": 5051,
      ":waving_hand:</w>": 5052,
      "Bitches</w>": 5053,
      "TX</w>": 5054,
      "Saw</w>": 5055,
      "Until</w>": 5056,
      "co-": 5057,
      "alarm</w>": 5058,
      "epic</w>": 5059,
      "performing</w>": 5060,
      "Plan</w>": 5061,
      "ved</w>": 5062,
      "Doing</w>": 5063,
      "Reading</w>": 5064,
      "google</w>": 5065,
      "recording</w>": 5066,
      "Fast</w>": 5067,
      "Navy</w>": 5068,
      "Early</w>": 5069,
      "PLS</w>": 5070,
      "68</w>": 5071,
      "Wo</w>": 5072,
      "tumblr</w>": 5073,
      "messed</w>": 5074,
      "bound</w>": 5075,
      ":person_gesturing_NO:</w>": 5076,
      "Bernie</w>": 5077,
      "CON": 5078,
      "accidentally</w>": 5079,
      "Victoria</w>": 5080,
      "lesbian</w>": 5081,
      "transfer</w>": 5082,
      "ela</w>": 5083,
      "rolling</w>": 5084,
      "eeee</w>": 5085,
      "cra": 5086,
      "#News</w>": 5087,
      "ep</w>": 5088,
      "exams</w>": 5089,
      ":sad_but_relieved_face:</w>": 5090,
      "EL</w>": 5091,
      "fa</w>": 5092,
      "#MTVStars</w>": 5093,
      "ours</w>": 5094,
      "wan</w>": 5095,
      "NC</w>": 5096,
      "drops</w>": 5097,
      "hurting</w>": 5098,
      "sayin</w>": 5099,
      "Asia</w>": 5100,
      "T-": 5101,
      "ying</w>": 5102,
      "2002</w>": 5103,
      "lang</w>": 5104,
      "silver</w>": 5105,
      "Medical</w>": 5106,
      "inch</w>": 5107,
      "cunt</w>": 5108,
      "sites</w>": 5109,
      "disease</w>": 5110,
      "Lvl</w>": 5111,
      "fed</w>": 5112,
      "remove</w>": 5113,
      "61</w>": 5114,
      "ola</w>": 5115,
      "EP</w>": 5116,
      "Black": 5117,
      "Fan</w>": 5118,
      "chi": 5119,
      "cont</w>": 5120,
      "pal</w>": 5121,
      "ans": 5122,
      "injured</w>": 5123,
      "ari</w>": 5124,
      "fantasy</w>": 5125,
      "costs</w>": 5126,
      "Human</w>": 5127,
      "Absolutely</w>": 5128,
      "33": 5129,
      "idc</w>": 5130,
      "Wedding</w>": 5131,
      "cutting</w>": 5132,
      "hopes</w>": 5133,
      "ative</w>": 5134,
      "anniversary</w>": 5135,
      "Definitely</w>": 5136,
      "Don</w>": 5137,
      "Your": 5138,
      ":money_bag:</w>": 5139,
      "El</w>": 5140,
      "port</w>": 5141,
      "ASAP</w>": 5142,
      "embarrassing</w>": 5143,
      "houses</w>": 5144,
      "Char": 5145,
      "ads</w>": 5146,
      "Nope</w>": 5147,
      "accepted</w>": 5148,
      "Whatever</w>": 5149,
      "backs</w>": 5150,
      "dropping</w>": 5151,
      "victims</w>": 5152,
      "primary</w>": 5153,
      "Mas": 5154,
      "Oct</w>": 5155,
      "bor": 5156,
      "Dec</w>": 5157,
      "pal": 5158,
      "Sch": 5159,
      "skinny</w>": 5160,
      "fl": 5161,
      "78</w>": 5162,
      "anti</w>": 5163,
      "software</w>": 5164,
      "oomf</w>": 5165,
      "organization</w>": 5166,
      "Former</w>": 5167,
      "balance</w>": 5168,
      "HI</w>": 5169,
      "Zayn</w>": 5170,
      "agreed</w>": 5171,
      "Training</w>": 5172,
      "Demi</w>": 5173,
      "RED</w>": 5174,
      "Rihanna</w>": 5175,
      "zing</w>": 5176,
      "hr</w>": 5177,
      "bot</w>": 5178,
      "Middle</w>": 5179,
      "Dems</w>": 5180,
      "stole</w>": 5181,
      "vs": 5182,
      "Josh</w>": 5183,
      "ll": 5184,
      "coverage</w>": 5185,
      "audience</w>": 5186,
      "Ju": 5187,
      "Oil</w>": 5188,
      "festival</w>": 5189,
      "Mexican</w>": 5190,
      "holidays</w>": 5191,
      "cop</w>": 5192,
      "Olympics</w>": 5193,
      "View</w>": 5194,
      "covers</w>": 5195,
      "#St": 5196,
      "promote</w>": 5197,
      "Bel": 5198,
      "sentence</w>": 5199,
      "pocket</w>": 5200,
      "opinions</w>": 5201,
      "annual</w>": 5202,
      "joining</w>": 5203,
      "Starting</w>": 5204,
      "cat": 5205,
      "doors</w>": 5206,
      "OS</w>": 5207,
      "relax</w>": 5208,
      "essay</w>": 5209,
      "fruit</w>": 5210,
      "climate</w>": 5211,
      ":-(</w>": 5212,
      "percent</w>": 5213,
      "-up</w>": 5214,
      "officials</w>": 5215,
      "log</w>": 5216,
      "FA</w>": 5217,
      "nuts</w>": 5218,
      "91</w>": 5219,
      "Orange</w>": 5220,
      "ski</w>": 5221,
      "cap</w>": 5222,
      "pie</w>": 5223,
      "plate</w>": 5224,
      "Pi": 5225,
      "musical</w>": 5226,
      "funniest</w>": 5227,
      "・</w>": 5228,
      "Magazine</w>": 5229,
      "discussion</w>": 5230,
      "depends</w>": 5231,
      "#my": 5232,
      "FT</w>": 5233,
      "hip</w>": 5234,
      "Barometer</w>": 5235,
      "annoyed</w>": 5236,
      "remains</w>": 5237,
      "@": 5238,
      "oz</w>": 5239,
      "ening</w>": 5240,
      "stores</w>": 5241,
      "Excited</w>": 5242,
      "Energy</w>": 5243,
      "Sean</w>": 5244,
      "hated</w>": 5245,
      "GA": 5246,
      "ide</w>": 5247,
      "Add</w>": 5248,
      "Dave</w>": 5249,
      "Valentine</w>": 5250,
      "sey</w>": 5251,
      "pre-": 5252,
      "mm": 5253,
      "Heat</w>": 5254,
      "thy</w>": 5255,
      "Yay</w>": 5256,
      "apologize</w>": 5257,
      "haters</w>": 5258,
      "Labour</w>": 5259,
      "tits</w>": 5260,
      "76</w>": 5261,
      "PR</w>": 5262,
      "Sony</w>": 5263,
      "MT</w>": 5264,
      "slap</w>": 5265,
      "10:": 5266,
      "kin": 5267,
      "ye": 5268,
      "core</w>": 5269,
      "ku": 5270,
      "inn": 5271,
      "nie</w>": 5272,
      "freak</w>": 5273,
      "Master</w>": 5274,
      "III</w>": 5275,
      "express</w>": 5276,
      "Sexy</w>": 5277,
      "HS</w>": 5278,
      "rose</w>": 5279,
      "47": 5280,
      "Chi": 5281,
      "Hi": 5282,
      "tests</w>": 5283,
      "ek</w>": 5284,
      "Starbucks</w>": 5285,
      "win": 5286,
      "Believe</w>": 5287,
      "12:": 5288,
      "boots</w>": 5289,
      "char": 5290,
      "Kanye</w>": 5291,
      "rush</w>": 5292,
      "entry</w>": 5293,
      "All": 5294,
      "appearance</w>": 5295,
      "AGAIN</w>": 5296,
      "emergency</w>": 5297,
      "#Job</w>": 5298,
      "Lot</w>": 5299,
      "coast</w>": 5300,
      "ous": 5301,
      "Brian</w>": 5302,
      "tape</w>": 5303,
      "Soon</w>": 5304,
      "Coach</w>": 5305,
      "gy": 5306,
      "71</w>": 5307,
      "drivers</w>": 5308,
      "Madrid</w>": 5309,
      "passion</w>": 5310,
      "cops</w>": 5311,
      "Jr</w>": 5312,
      "Ring</w>": 5313,
      "omfg</w>": 5314,
      "tear</w>": 5315,
      "FO": 5316,
      "placed</w>": 5317,
      "tro": 5318,
      "passes</w>": 5319,
      "precious</w>": 5320,
      "gross</w>": 5321,
      "ED": 5322,
      "opens</w>": 5323,
      "rice</w>": 5324,
      "caring</w>": 5325,
      "gan</w>": 5326,
      "#l": 5327,
      "lah</w>": 5328,
      "records</w>": 5329,
      "dd": 5330,
      "officer</w>": 5331,
      "bel": 5332,
      "voters</w>": 5333,
      "Sky</w>": 5334,
      "sight</w>": 5335,
      "Major</w>": 5336,
      "appreciated</w>": 5337,
      "racism</w>": 5338,
      "defend</w>": 5339,
      "Short</w>": 5340,
      "cuddle</w>": 5341,
      "Ariana</w>": 5342,
      "pot</w>": 5343,
      ":face_with_tongue:</w>": 5344,
      "flip</w>": 5345,
      "Breaking</w>": 5346,
      "Word</w>": 5347,
      "regarding</w>": 5348,
      "Prime</w>": 5349,
      "noise</w>": 5350,
      "metal</w>": 5351,
      "WH": 5352,
      "Yall</w>": 5353,
      "mp": 5354,
      "Bag</w>": 5355,
      "low": 5356,
      "73</w>": 5357,
      "matches</w>": 5358,
      "besides</w>": 5359,
      "egg</w>": 5360,
      "kit</w>": 5361,
      "gifts</w>": 5362,
      "sub</w>": 5363,
      "VOTE</w>": 5364,
      "rent</w>": 5365,
      "Cat</w>": 5366,
      "victim</w>": 5367,
      "--": 5368,
      "Eric</w>": 5369,
      "shares</w>": 5370,
      "Te": 5371,
      "suggest</w>": 5372,
      "een</w>": 5373,
      "#go": 5374,
      "Hold</w>": 5375,
      "tool</w>": 5376,
      "Dra": 5377,
      "uk": 5378,
      "suicide</w>": 5379,
      "pat": 5380,
      "ahh</w>": 5381,
      "Ms</w>": 5382,
      "Key</w>": 5383,
      "scale</w>": 5384,
      "knee</w>": 5385,
      "BB": 5386,
      "Ty": 5387,
      "Wil": 5388,
      "thick</w>": 5389,
      "battery</w>": 5390,
      "Sat</w>": 5391,
      "Truth</w>": 5392,
      "replaced</w>": 5393,
      "investigation</w>": 5394,
      "2-": 5395,
      "Said</w>": 5396,
      "Natural</w>": 5397,
      "89</w>": 5398,
      "yep</w>": 5399,
      "wal": 5400,
      "employees</w>": 5401,
      "Ways</w>": 5402,
      "Local</w>": 5403,
      "figured</w>": 5404,
      "NE</w>": 5405,
      "che": 5406,
      "grand</w>": 5407,
      "socks</w>": 5408,
      "strategy</w>": 5409,
      "Web</w>": 5410,
      "Republic</w>": 5411,
      "04": 5412,
      "Technology</w>": 5413,
      "praying</w>": 5414,
      "39": 5415,
      "surely</w>": 5416,
      "silence</w>": 5417,
      "awhile</w>": 5418,
      "Instead</w>": 5419,
      "93</w>": 5420,
      "hiding</w>": 5421,
      "aged</w>": 5422,
      "probs</w>": 5423,
      "activity</w>": 5424,
      "funding</w>": 5425,
      "han": 5426,
      "playoffs</w>": 5427,
      "sm</w>": 5428,
      "ere</w>": 5429,
      "conditions</w>": 5430,
      "jacket</w>": 5431,
      "models</w>": 5432,
      "effective</w>": 5433,
      "ick</w>": 5434,
      "devil</w>": 5435,
      "4-": 5436,
      "homes</w>": 5437,
      "ered</w>": 5438,
      "Mad": 5439,
      "Academy</w>": 5440,
      "activities</w>": 5441,
      "outs</w>": 5442,
      "colour</w>": 5443,
      "Photoset</w>": 5444,
      "businesses</w>": 5445,
      "pushing</w>": 5446,
      "Running</w>": 5447,
      "79</w>": 5448,
      "ck": 5449,
      "Each</w>": 5450,
      "cheat</w>": 5451,
      "Mrs</w>": 5452,
      "´</w>": 5453,
      "stops</w>": 5454,
      "ani": 5455,
      "Khan</w>": 5456,
      "KING</w>": 5457,
      "Bell</w>": 5458,
      "Hmm</w>": 5459,
      "Talking</w>": 5460,
      "reminder</w>": 5461,
      "lat": 5462,
      "WIN</w>": 5463,
      "staring</w>": 5464,
      "#8": 5465,
      "Coffee</w>": 5466,
      "county</w>": 5467,
      "94</w>": 5468,
      "focused</w>": 5469,
      "blessing</w>": 5470,
      "presence</w>": 5471,
      "MC</w>": 5472,
      "eng": 5473,
      "er-": 5474,
      "Tune</w>": 5475,
      "laid</w>": 5476,
      "lar": 5477,
      "pt</w>": 5478,
      "gg</w>": 5479,
      "tt</w>": 5480,
      "bills</w>": 5481,
      "choices</w>": 5482,
      "ser</w>": 5483,
      "fe</w>": 5484,
      "one": 5485,
      "Pri": 5486,
      "Note</w>": 5487,
      "Available</w>": 5488,
      "escape</w>": 5489,
      "significant</w>": 5490,
      "comeback</w>": 5491,
      "Walking</w>": 5492,
      "ious</w>": 5493,
      "lover</w>": 5494,
      "gi</w>": 5495,
      "tive</w>": 5496,
      "GREAT</w>": 5497,
      "BA</w>": 5498,
      "Seeing</w>": 5499,
      "#a": 5500,
      "VERY</w>": 5501,
      "tim": 5502,
      "max</w>": 5503,
      "Coast</w>": 5504,
      "Andy</w>": 5505,
      "sunday</w>": 5506,
      "fandom</w>": 5507,
      "spoke</w>": 5508,
      "beef</w>": 5509,
      "cam": 5510,
      "Using</w>": 5511,
      "24/7</w>": 5512,
      "Seattle</w>": 5513,
      "seek</w>": 5514,
      "iTunes</w>": 5515,
      "ama": 5516,
      "ene</w>": 5517,
      "11:": 5518,
      "deserved</w>": 5519,
      "Pl": 5520,
      "podcast</w>": 5521,
      "Child</w>": 5522,
      "49": 5523,
      "Doctor</w>": 5524,
      "eggs</w>": 5525,
      "ace</w>": 5526,
      ":regional_indicator_symbol_letter_u:</w>": 5527,
      "#New": 5528,
      "Ive</w>": 5529,
      "itt": 5530,
      "Val": 5531,
      "Stories</w>": 5532,
      "federal</w>": 5533,
      "je": 5534,
      "Pop</w>": 5535,
      "fund</w>": 5536,
      "destroyed</w>": 5537,
      "Stone</w>": 5538,
      "UM": 5539,
      "Francisco</w>": 5540,
      "Turkey</w>": 5541,
      "provided</w>": 5542,
      "lands</w>": 5543,
      "idiots</w>": 5544,
      "display</w>": 5545,
      "patients</w>": 5546,
      "greater</w>": 5547,
      "Sea</w>": 5548,
      "graduate</w>": 5549,
      "eng</w>": 5550,
      "eight</w>": 5551,
      "ming</w>": 5552,
      "ham": 5553,
      "bin</w>": 5554,
      "trees</w>": 5555,
      "ward</w>": 5556,
      "slide</w>": 5557,
      "ei": 5558,
      "ken</w>": 5559,
      "Model</w>": 5560,
      "Sc": 5561,
      "founded</w>": 5562,
      "raining</w>": 5563,
      "Though</w>": 5564,
      "announce</w>": 5565,
      "championship</w>": 5566,
      "Color</w>": 5567,
      "Used</w>": 5568,
      "Followers</w>": 5569,
      "Jeff</w>": 5570,
      "Action</w>": 5571,
      "university</w>": 5572,
      "Event</w>": 5573,
      "lbs</w>": 5574,
      "Grey</w>": 5575,
      "Weekend</w>": 5576,
      "tta</w>": 5577,
      "fri": 5578,
      "Supreme</w>": 5579,
      "Charlie</w>": 5580,
      "Hy": 5581,
      "anal</w>": 5582,
      "hPa</w>": 5583,
      "Wild</w>": 5584,
      "pen": 5585,
      "Aww</w>": 5586,
      "dedicated</w>": 5587,
      "CH</w>": 5588,
      "handsome</w>": 5589,
      "wasted</w>": 5590,
      "men": 5591,
      "Cr": 5592,
      "verse</w>": 5593,
      "sore</w>": 5594,
      "BLACK</w>": 5595,
      "Ross</w>": 5596,
      "74</w>": 5597,
      "giveaway</w>": 5598,
      "overall</w>": 5599,
      "del</w>": 5600,
      "rip</w>": 5601,
      "Break</w>": 5602,
      "puppy</w>": 5603,
      "unit</w>": 5604,
      "thus</w>": 5605,
      "Through</w>": 5606,
      "GONNA</w>": 5607,
      "comedy</w>": 5608,
      "links</w>": 5609,
      "Sho": 5610,
      "hugs</w>": 5611,
      "burning</w>": 5612,
      "Stand</w>": 5613,
      "Don": 5614,
      "killer</w>": 5615,
      "Bible</w>": 5616,
      "Pay</w>": 5617,
      "duty</w>": 5618,
      "zz</w>": 5619,
      "Stephen</w>": 5620,
      "returns</w>": 5621,
      "adding</w>": 5622,
      "Mat": 5623,
      "chips</w>": 5624,
      "worries</w>": 5625,
      "HELP</w>": 5626,
      "tur": 5627,
      "separate</w>": 5628,
      "Pat": 5629,
      "odd</w>": 5630,
      "lake</w>": 5631,
      "21st</w>": 5632,
      "ste": 5633,
      "tend</w>": 5634,
      "UT</w>": 5635,
      "Muslims</w>": 5636,
      "bars</w>": 5637,
      "Fight</w>": 5638,
      "hor": 5639,
      "Mini</w>": 5640,
      "lessons</w>": 5641,
      "reference</w>": 5642,
      "debt</w>": 5643,
      "bodies</w>": 5644,
      "tons</w>": 5645,
      "YA</w>": 5646,
      "stressed</w>": 5647,
      ":regional_indicator_symbol_letter_s:</w>": 5648,
      "izing</w>": 5649,
      "EVERYTHING</w>": 5650,
      "Fans</w>": 5651,
      "ped</w>": 5652,
      "Cut</w>": 5653,
      "head": 5654,
      "depressed</w>": 5655,
      "Age</w>": 5656,
      "function</w>": 5657,
      "administration</w>": 5658,
      "inst": 5659,
      "liberal</w>": 5660,
      "hiring</w>": 5661,
      "split</w>": 5662,
      "Bro": 5663,
      "generally</w>": 5664,
      "motivation</w>": 5665,
      "Side</w>": 5666,
      "regardless</w>": 5667,
      "albums</w>": 5668,
      ":crown:</w>": 5669,
      "ths</w>": 5670,
      "HAS</w>": 5671,
      "sea": 5672,
      "Double</w>": 5673,
      "catching</w>": 5674,
      "Rick</w>": 5675,
      "convo</w>": 5676,
      "al-": 5677,
      "ATE</w>": 5678,
      "exercise</w>": 5679,
      "84</w>": 5680,
      "Ft</w>": 5681,
      "WAIT</w>": 5682,
      "Society</w>": 5683,
      "keys</w>": 5684,
      "chain</w>": 5685,
      "fancy</w>": 5686,
      "Late</w>": 5687,
      "featuring</w>": 5688,
      "Son</w>": 5689,
      "tin</w>": 5690,
      "Gen": 5691,
      "scores</w>": 5692,
      "listed</w>": 5693,
      "package</w>": 5694,
      "Mine</w>": 5695,
      "Diamond</w>": 5696,
      "AP": 5697,
      "speaks</w>": 5698,
      "ats</w>": 5699,
      "ging</w>": 5700,
      "250</w>": 5701,
      "whilst</w>": 5702,
      "yah</w>": 5703,
      "ce": 5704,
      "sauce</w>": 5705,
      "prepare</w>": 5706,
      "advance</w>": 5707,
      "achieve</w>": 5708,
      "QU": 5709,
      "Poor</w>": 5710,
      "professor</w>": 5711,
      "tank</w>": 5712,
      "Mad</w>": 5713,
      "cl": 5714,
      "HAHA</w>": 5715,
      "prob</w>": 5716,
      "Dec": 5717,
      "enc": 5718,
      "Xx</w>": 5719,
      "images</w>": 5720,
      "Jimmy</w>": 5721,
      "din</w>": 5722,
      "luke</w>": 5723,
      "Proud</w>": 5724,
      "ocean</w>": 5725,
      "9th</w>": 5726,
      "yy</w>": 5727,
      "Association</w>": 5728,
      "clubs</w>": 5729,
      "nail</w>": 5730,
      "existence</w>": 5731,
      "Lewis</w>": 5732,
      "HAHAHA</w>": 5733,
      "believed</w>": 5734,
      ":collision:</w>": 5735,
      "Chat</w>": 5736,
      "Friend</w>": 5737,
      "desk</w>": 5738,
      "Holiday</w>": 5739,
      "Del": 5740,
      "butter</w>": 5741,
      "prevent</w>": 5742,
      "headache</w>": 5743,
      "88": 5744,
      "originally</w>": 5745,
      "basis</w>": 5746,
      "Anthony</w>": 5747,
      "not": 5748,
      "Centre</w>": 5749,
      "chase</w>": 5750,
      "thin</w>": 5751,
      "Air": 5752,
      "connected</w>": 5753,
      "20th</w>": 5754,
      "kisses</w>": 5755,
      "SAY</w>": 5756,
      "productive</w>": 5757,
      "dunno</w>": 5758,
      "Words</w>": 5759,
      "programs</w>": 5760,
      "fourth</w>": 5761,
      "3-": 5762,
      "Stock</w>": 5763,
      "Alright</w>": 5764,
      "Fr": 5765,
      "supported</w>": 5766,
      "prolly</w>": 5767,
      "opportunities</w>": 5768,
      "silent</w>": 5769,
      "belong</w>": 5770,
      "Release</w>": 5771,
      "equal</w>": 5772,
      "dealing</w>": 5773,
      "cheating</w>": 5774,
      "Control</w>": 5775,
      "EVERY</w>": 5776,
      "COM": 5777,
      "Yo": 5778,
      "Sydney</w>": 5779,
      "LOT</w>": 5780,
      "celebrating</w>": 5781,
      "60": 5782,
      "Mueller</w>": 5783,
      "BEEN</w>": 5784,
      "efforts</w>": 5785,
      "closing</w>": 5786,
      "painting</w>": 5787,
      "supply</w>": 5788,
      "spam</w>": 5789,
      "120</w>": 5790,
      "mb</w>": 5791,
      "Simple</w>": 5792,
      "tied</w>": 5793,
      "swimming</w>": 5794,
      "skip</w>": 5795,
      "Trailer</w>": 5796,
      "FF": 5797,
      "(8</w>": 5798,
      "Southern</w>": 5799,
      "82</w>": 5800,
      "charges</w>": 5801,
      "yyy</w>": 5802,
      "shipping</w>": 5803,
      "mas</w>": 5804,
      "automatically</w>": 5805,
      "bt</w>": 5806,
      "definition</w>": 5807,
      "warning</w>": 5808,
      "RE</w>": 5809,
      "Page</w>": 5810,
      "relevant</w>": 5811,
      "suffering</w>": 5812,
      "sch": 5813,
      "jersey</w>": 5814,
      "profit</w>": 5815,
      "offense</w>": 5816,
      "ils</w>": 5817,
      "lee</w>": 5818,
      "Greek</w>": 5819,
      "firm</w>": 5820,
      "Sub": 5821,
      "monday</w>": 5822,
      "Tyler</w>": 5823,
      "division</w>": 5824,
      "McDonald</w>": 5825,
      "Following</w>": 5826,
      "garbage</w>": 5827,
      "Place</w>": 5828,
      "bles</w>": 5829,
      "IV</w>": 5830,
      "useless</w>": 5831,
      "83</w>": 5832,
      "standards</w>": 5833,
      "Garden</w>": 5834,
      "Hal": 5835,
      "follower</w>": 5836,
      "politicians</w>": 5837,
      "VE</w>": 5838,
      "Interesting</w>": 5839,
      "Beyonce</w>": 5840,
      "behavior</w>": 5841,
      "1:": 5842,
      "Putin</w>": 5843,
      "protest</w>": 5844,
      "gender</w>": 5845,
      "happier</w>": 5846,
      "Month</w>": 5847,
      "Away</w>": 5848,
      "tter</w>": 5849,
      "crossed</w>": 5850,
      "Cur": 5851,
      "GU": 5852,
      "«</w>": 5853,
      "81</w>": 5854,
      "wn</w>": 5855,
      "pen</w>": 5856,
      "fc</w>": 5857,
      "Building</w>": 5858,
      "wr": 5859,
      "genius</w>": 5860,
      "doctors</w>": 5861,
      "Development</w>": 5862,
      "mr</w>": 5863,
      "forgotten</w>": 5864,
      "bug</w>": 5865,
      "liar</w>": 5866,
      "Miller</w>": 5867,
      "ABC</w>": 5868,
      "blowing</w>": 5869,
      "ned</w>": 5870,
      "Da</w>": 5871,
      "€</w>": 5872,
      "fits</w>": 5873,
      "Gets</w>": 5874,
      "Division</w>": 5875,
      "bat": 5876,
      "DOWN</w>": 5877,
      "clip</w>": 5878,
      "picks</w>": 5879,
      ":headphone:</w>": 5880,
      "banned</w>": 5881,
      "Hor": 5882,
      "Premier</w>": 5883,
      "ingly</w>": 5884,
      "ab</w>": 5885,
      "Ay": 5886,
      "childhood</w>": 5887,
      "Either</w>": 5888,
      "Player</w>": 5889,
      "agent</w>": 5890,
      "monster</w>": 5891,
      "reporting</w>": 5892,
      "#re": 5893,
      "ened</w>": 5894,
      "stood</w>": 5895,
      "mates</w>": 5896,
      "environment</w>": 5897,
      "offering</w>": 5898,
      "yan</w>": 5899,
      "experienced</w>": 5900,
      "hire</w>": 5901,
      "#7": 5902,
      "disagree</w>": 5903,
      "gh</w>": 5904,
      "#r": 5905,
      "prize</w>": 5906,
      "BABY</w>": 5907,
      "Cross</w>": 5908,
      "Cro": 5909,
      "Modi</w>": 5910,
      "Catholic</w>": 5911,
      "FIRST</w>": 5912,
      "BB</w>": 5913,
      "texted</w>": 5914,
      "Unless</w>": 5915,
      "letters</w>": 5916,
      "western</w>": 5917,
      "Sur": 5918,
      "purple</w>": 5919,
      "performed</w>": 5920,
      "1999</w>": 5921,
      "Detroit</w>": 5922,
      "ben": 5923,
      "Pan": 5924,
      "papers</w>": 5925,
      "prayer</w>": 5926,
      "Tor": 5927,
      "Moon</w>": 5928,
      "pped</w>": 5929,
      "Morgan</w>": 5930,
      "bb": 5931,
      "land": 5932,
      "OVER</w>": 5933,
      "Feels</w>": 5934,
      "goodness</w>": 5935,
      "600</w>": 5936,
      "traditional</w>": 5937,
      "aaa</w>": 5938,
      "Steel</w>": 5939,
      "Junior</w>": 5940,
      "Gone</w>": 5941,
      "pulling</w>": 5942,
      "PE": 5943,
      "7-": 5944,
      "As": 5945,
      "logic</w>": 5946,
      "settle</w>": 5947,
      "]:</w>": 5948,
      "lab</w>": 5949,
      "Tar": 5950,
      "Van</w>": 5951,
      "Angel</w>": 5952,
      "BL": 5953,
      "San": 5954,
      "mid</w>": 5955,
      "CT</w>": 5956,
      "Miley</w>": 5957,
      "concern</w>": 5958,
      "presents</w>": 5959,
      "Cuz</w>": 5960,
      "resources</w>": 5961,
      "windows</w>": 5962,
      "accused</w>": 5963,
      "8-": 5964,
      "Area</w>": 5965,
      "rates</w>": 5966,
      "bab": 5967,
      "smells</w>": 5968,
      "Perry</w>": 5969,
      "Kid</w>": 5970,
      "compare</w>": 5971,
      "sof": 5972,
      "86</w>": 5973,
      "87</w>": 5974,
      "ooo</w>": 5975,
      "Question</w>": 5976,
      "housing</w>": 5977,
      "ians</w>": 5978,
      "Bush</w>": 5979,
      "condition</w>": 5980,
      "Zealand</w>": 5981,
      "Ku": 5982,
      "hs</w>": 5983,
      "Deep</w>": 5984,
      "responsibility</w>": 5985,
      "ever": 5986,
      "Bri": 5987,
      "Hahahaha</w>": 5988,
      "Anything</w>": 5989,
      "genuinely</w>": 5990,
      "gen</w>": 5991,
      "bonus</w>": 5992,
      "niall</w>": 5993,
      "mans</w>": 5994,
      "#quote</w>": 5995,
      "sia</w>": 5996,
      "GIRL</w>": 5997,
      "edit</w>": 5998,
      "complex</w>": 5999,
      "down": 6000,
      "depression</w>": 6001,
      "useful</w>": 6002,
      "Collection</w>": 6003,
      "Shoes</w>": 6004,
      ":Christmas_tree:</w>": 6005,
      "cur": 6006,
      "8.": 6007,
      "Alabama</w>": 6008,
      "Davis</w>": 6009,
      "gie</w>": 6010,
      "Sen": 6011,
      "sed": 6012,
      "ESPN</w>": 6013,
      "desperate</w>": 6014,
      "lov": 6015,
      "medicine</w>": 6016,
      "funds</w>": 6017,
      "hun</w>": 6018,
      "#y": 6019,
      "ac</w>": 6020,
      "effects</w>": 6021,
      "democracy</w>": 6022,
      "chapter</w>": 6023,
      "wouldnt</w>": 6024,
      "Tickets</w>": 6025,
      "CO</w>": 6026,
      "roads</w>": 6027,
      "civil</w>": 6028,
      "someday</w>": 6029,
      "wor": 6030,
      "2.0</w>": 6031,
      "Books</w>": 6032,
      "introduced</w>": 6033,
      "PE</w>": 6034,
      "ora</w>": 6035,
      "Ter": 6036,
      "emails</w>": 6037,
      "EV": 6038,
      "Aug</w>": 6039,
      "shocked</w>": 6040,
      "nonsense</w>": 6041,
      "Shout</w>": 6042,
      "--></w>": 6043,
      "Glass</w>": 6044,
      "trading</w>": 6045,
      "tor</w>": 6046,
      "Reach</w>": 6047,
      "heck</w>": 6048,
      "mc": 6049,
      "bat</w>": 6050,
      "GR": 6051,
      "produce</w>": 6052,
      "SW": 6053,
      "hhhh</w>": 6054,
      "ars</w>": 6055,
      "Korean</w>": 6056,
      "ap</w>": 6057,
      "Northern</w>": 6058,
      "sta": 6059,
      "ges</w>": 6060,
      "Search</w>": 6061,
      "exchange</w>": 6062,
      "FF</w>": 6063,
      "pounds</w>": 6064,
      "wisdom</w>": 6065,
      "toward</w>": 6066,
      "nine</w>": 6067,
      "Federal</w>": 6068,
      "Hour</w>": 6069,
      "bench</w>": 6070,
      "Captain</w>": 6071,
      "analysis</w>": 6072,
      "Romney</w>": 6073,
      "ku</w>": 6074,
      "smaller</w>": 6075,
      "♪</w>": 6076,
      "int</w>": 6077,
      "null</w>": 6078,
      "sor": 6079,
      "Islam</w>": 6080,
      "2.5</w>": 6081,
      "donate</w>": 6082,
      "Rising</w>": 6083,
      "VI": 6084,
      "Democratic</w>": 6085,
      "ther</w>": 6086,
      "Johnny</w>": 6087,
      "inner</w>": 6088,
      "parent</w>": 6089,
      "Hospital</w>": 6090,
      "therefore</w>": 6091,
      "#im": 6092,
      "Main</w>": 6093,
      "plot</w>": 6094,
      "Phil</w>": 6095,
      "suffer</w>": 6096,
      "grades</w>": 6097,
      "May": 6098,
      "committed</w>": 6099,
      "Level</w>": 6100,
      "#gameinsight</w>": 6101,
      "Bor": 6102,
      "Front</w>": 6103,
      "appointment</w>": 6104,
      "oun": 6105,
      "#Ch": 6106,
      "wee</w>": 6107,
      "ami</w>": 6108,
      "Closed</w>": 6109,
      "Bon": 6110,
      "sto": 6111,
      "Yup</w>": 6112,
      "li</w>": 6113,
      "Fo": 6114,
      "Allen</w>": 6115,
      "TWEET</w>": 6116,
      "shits</w>": 6117,
      "bury</w>": 6118,
      "promised</w>": 6119,
      "Patrick</w>": 6120,
      "Diego</w>": 6121,
      "IG": 6122,
      "Voice</w>": 6123,
      "va": 6124,
      "mayor</w>": 6125,
      "horror</w>": 6126,
      "Against</w>": 6127,
      "Falling</w>": 6128,
      "counting</w>": 6129,
      "Jewish</w>": 6130,
      "pur": 6131,
      "shi</w>": 6132,
      "Sy": 6133,
      "bum</w>": 6134,
      "Bea": 6135,
      "convinced</w>": 6136,
      "mature</w>": 6137,
      "wore</w>": 6138,
      "that": 6139,
      "Text</w>": 6140,
      "sex": 6141,
      "MUST</w>": 6142,
      "bit": 6143,
      "license</w>": 6144,
      "Snow</w>": 6145,
      "Learning</w>": 6146,
      "forms</w>": 6147,
      ":smiling_cat_face_with_heart-eyes:</w>": 6148,
      "Ly": 6149,
      "ments</w>": 6150,
      "plastic</w>": 6151,
      "Ob": 6152,
      "adventure</w>": 6153,
      "zed</w>": 6154,
      "rep": 6155,
      "TD</w>": 6156,
      "Credit</w>": 6157,
      "charity</w>": 6158,
      "engine</w>": 6159,
      "sandwich</w>": 6160,
      "Step</w>": 6161,
      "Square</w>": 6162,
      "launched</w>": 6163,
      "Fake</w>": 6164,
      "ory</w>": 6165,
      "critical</w>": 6166,
      "flower</w>": 6167,
      "vehicle</w>": 6168,
      "bias</w>": 6169,
      "46": 6170,
      "marks</w>": 6171,
      "defeat</w>": 6172,
      "unfollowed</w>": 6173,
      "By": 6174,
      "deliver</w>": 6175,
      "Already</w>": 6176,
      "Sol": 6177,
      "issued</w>": 6178,
      "delay</w>": 6179,
      "PH": 6180,
      "zi</w>": 6181,
      "bell</w>": 6182,
      "#9": 6183,
      "reviews</w>": 6184,
      "struggling</w>": 6185,
      "ken": 6186,
      "hashtag</w>": 6187,
      "anti": 6188,
      "Yesterday</w>": 6189,
      "impressed</w>": 6190,
      "LET</w>": 6191,
      "LMFAO</w>": 6192,
      "bedroom</w>": 6193,
      "asses</w>": 6194,
      "attacked</w>": 6195,
      "corrupt</w>": 6196,
      ":sweat_droplets:</w>": 6197,
      "2,": 6198,
      "Trade</w>": 6199,
      "owners</w>": 6200,
      "ality</w>": 6201,
      "Large</w>": 6202,
      "Wilson</w>": 6203,
      "Records</w>": 6204,
      "WWE</w>": 6205,
      "naw</w>": 6206,
      "18th</w>": 6207,
      "#Happy": 6208,
      "sar": 6209,
      "weekly</w>": 6210,
      "Study</w>": 6211,
      "bone</w>": 6212,
      "QB</w>": 6213,
      "confident</w>": 6214,
      "walls</w>": 6215,
      "wishing</w>": 6216,
      "desire</w>": 6217,
      "ky": 6218,
      "seeking</w>": 6219,
      "stays</w>": 6220,
      "cough</w>": 6221,
      "joking</w>": 6222,
      "gear</w>": 6223,
      "loan</w>": 6224,
      "saturday</w>": 6225,
      "THEN</w>": 6226,
      "Despite</w>": 6227,
      "shing</w>": 6228,
      "unknown</w>": 6229,
      "comfort</w>": 6230,
      "sec</w>": 6231,
      "ppy</w>": 6232,
      "poll</w>": 6233,
      "Selena</w>": 6234,
      "tone</w>": 6235,
      "TF</w>": 6236,
      "por": 6237,
      "Boo": 6238,
      ":pleading_face:</w>": 6239,
      "UP": 6240,
      "Roman</w>": 6241,
      "#5": 6242,
      "ura</w>": 6243,
      "Back": 6244,
      "yup</w>": 6245,
      "normally</w>": 6246,
      "Arts</w>": 6247,
      "10th</w>": 6248,
      "minister</w>": 6249,
      "HP</w>": 6250,
      "Ed": 6251,
      "squ": 6252,
      ":camera:</w>": 6253,
      "TW": 6254,
      "Saudi</w>": 6255,
      "lemme</w>": 6256,
      "EXO</w>": 6257,
      "expert</w>": 6258,
      "sen</w>": 6259,
      "ity": 6260,
      "hun": 6261,
      "b4</w>": 6262,
      "sudden</w>": 6263,
      "Fin": 6264,
      "winners</w>": 6265,
      "THINK</w>": 6266,
      "ders</w>": 6267,
      "val": 6268,
      "shoe</w>": 6269,
      "PT</w>": 6270,
      "SM</w>": 6271,
      "lia</w>": 6272,
      "rising</w>": 6273,
      "factor</w>": 6274,
      "Cra": 6275,
      "Bridge</w>": 6276,
      "xxxx</w>": 6277,
      "Sea": 6278,
      "Walk</w>": 6279,
      "Hand</w>": 6280,
      "Cam</w>": 6281,
      "DIS": 6282,
      "slut</w>": 6283,
      "Forget</w>": 6284,
      "Cute</w>": 6285,
      "ities</w>": 6286,
      "ston</w>": 6287,
      "Wake</w>": 6288,
      "Pressure</w>": 6289,
      "Clean</w>": 6290,
      "Blood</w>": 6291,
      "9.": 6292,
      "play": 6293,
      "uck</w>": 6294,
      "cer": 6295,
      "gl": 6296,
      "upload</w>": 6297,
      "longest</w>": 6298,
      "ANY</w>": 6299,
      "Thing</w>": 6300,
      "patience</w>": 6301,
      "gun": 6302,
      "fan": 6303,
      "department</w>": 6304,
      "application</w>": 6305,
      "ner": 6306,
      "Took</w>": 6307,
      "new": 6308,
      "Currently</w>": 6309,
      "Jon</w>": 6310,
      "Cruz</w>": 6311,
      "fab</w>": 6312,
      "CAN'T</w>": 6313,
      "ji": 6314,
      "Colorado</w>": 6315,
      "length</w>": 6316,
      "cousins</w>": 6317,
      "MUSIC</w>": 6318,
      "Princess</w>": 6319,
      "studies</w>": 6320,
      "southern</w>": 6321,
      "yer</w>": 6322,
      "Judge</w>": 6323,
      "tu</w>": 6324,
      "LL</w>": 6325,
      "swim</w>": 6326,
      "Cho": 6327,
      "Quality</w>": 6328,
      "fought</w>": 6329,
      "Kobe</w>": 6330,
      "fun": 6331,
      "wrap</w>": 6332,
      "loser</w>": 6333,
      "therapy</w>": 6334,
      "circle</w>": 6335,
      "Las</w>": 6336,
      "black": 6337,
      "packed</w>": 6338,
      "union</w>": 6339,
      "granted</w>": 6340,
      "maker</w>": 6341,
      "arguing</w>": 6342,
      "mentally</w>": 6343,
      "Ion</w>": 6344,
      "GE</w>": 6345,
      "Mel": 6346,
      "hook</w>": 6347,
      "provides</w>": 6348,
      "eaten</w>": 6349,
      "ids</w>": 6350,
      "accurate</w>": 6351,
      "broadcast</w>": 6352,
      "MO</w>": 6353,
      ".com</w>": 6354,
      "gal</w>": 6355,
      "Bet</w>": 6356,
      "#not": 6357,
      "allows</w>": 6358,
      "heels</w>": 6359,
      "lmaoo</w>": 6360,
      "painful</w>": 6361,
      "Success</w>": 6362,
      "graduation</w>": 6363,
      "Wales</w>": 6364,
      "file</w>": 6365,
      "aunt</w>": 6366,
      "directed</w>": 6367,
      "comic</w>": 6368,
      "promo</w>": 6369,
      "Land</w>": 6370,
      "conversations</w>": 6371,
      "AK": 6372,
      "je</w>": 6373,
      "agenda</w>": 6374,
      "lifetime</w>": 6375,
      "KE</w>": 6376,
      "tion": 6377,
      "Whenever</w>": 6378,
      "boost</w>": 6379,
      "adults</w>": 6380,
      "shock</w>": 6381,
      "FIFA</w>": 6382,
      "bacon</w>": 6383,
      "chin</w>": 6384,
      "grass</w>": 6385,
      "off": 6386,
      "ites</w>": 6387,
      "Loving</w>": 6388,
      "twin</w>": 6389,
      "articles</w>": 6390,
      "ohh</w>": 6391,
      "bla": 6392,
      "Ham": 6393,
      "Mil": 6394,
      "roof</w>": 6395,
      "☼</w>": 6396,
      "ged</w>": 6397,
      "ised</w>": 6398,
      "Olympic</w>": 6399,
      "mountain</w>": 6400,
      "Rd</w>": 6401,
      "delivered</w>": 6402,
      ":snowflake:</w>": 6403,
      "TING</w>": 6404,
      "ghost</w>": 6405,
      "Goodnight</w>": 6406,
      "1.5</w>": 6407,
      "Eat</w>": 6408,
      "RB": 6409,
      "Na</w>": 6410,
      "CL": 6411,
      "Minaj</w>": 6412,
      "brave</w>": 6413,
      "rocks</w>": 6414,
      "Pacific</w>": 6415,
      "grind</w>": 6416,
      "Er": 6417,
      "seemed</w>": 6418,
      "Cleveland</w>": 6419,
      "agency</w>": 6420,
      "logo</w>": 6421,
      "3,": 6422,
      "develop</w>": 6423,
      "Jose</w>": 6424,
      "Cameron</w>": 6425,
      "Woke</w>": 6426,
      "investment</w>": 6427,
      "GS</w>": 6428,
      "gro": 6429,
      "fabulous</w>": 6430,
      "ren</w>": 6431,
      "teens</w>": 6432,
      "Program</w>": 6433,
      "ds": 6434,
      "inf": 6435,
      "DAMN</w>": 6436,
      "Nu": 6437,
      "MD</w>": 6438,
      "inspiring</w>": 6439,
      "Cole</w>": 6440,
      "TT</w>": 6441,
      "hosting</w>": 6442,
      "worthy</w>": 6443,
      "ark": 6444,
      "pp</w>": 6445,
      "anda</w>": 6446,
      "lls</w>": 6447,
      "stfu</w>": 6448,
      "bow</w>": 6449,
      "mommy</w>": 6450,
      "drag</w>": 6451,
      "bee</w>": 6452,
      "#Vote": 6453,
      "dd</w>": 6454,
      "dads</w>": 6455,
      "intelligence</w>": 6456,
      "atic</w>": 6457,
      ",": 6458,
      "illa</w>": 6459,
      "Around</w>": 6460,
      "sol": 6461,
      "#えどがわイケメン</w>": 6462,
      "Field</w>": 6463,
      "wed</w>": 6464,
      "1,000</w>": 6465,
      "GIVE</w>": 6466,
      "sum": 6467,
      "accent</w>": 6468,
      "hoo": 6469,
      "uploaded</w>": 6470,
      "selfies</w>": 6471,
      "zayn</w>": 6472,
      "App": 6473,
      "ue</w>": 6474,
      "shit": 6475,
      "hardly</w>": 6476,
      "Mars</w>": 6477,
      "device</w>": 6478,
      "tools</w>": 6479,
      "fre": 6480,
      "corruption</w>": 6481,
      "knocked</w>": 6482,
      "ink": 6483,
      "facing</w>": 6484,
      "individuals</w>": 6485,
      "panic</w>": 6486,
      "Fresh</w>": 6487,
      "assist</w>": 6488,
      "ances</w>": 6489,
      "Gi": 6490,
      "Wi": 6491,
      "affected</w>": 6492,
      "Own</w>": 6493,
      "Number</w>": 6494,
      "ISIS</w>": 6495,
      "Studio</w>": 6496,
      "Fine</w>": 6497,
      "captain</w>": 6498,
      "SB</w>": 6499,
      "Ge": 6500,
      "ently</w>": 6501,
      ":backhand_index_pointing_down:</w>": 6502,
      "Sta": 6503,
      "owe</w>": 6504,
      "aaa": 6505,
      "relate</w>": 6506,
      "una</w>": 6507,
      "Thanksgiving</w>": 6508,
      "laughs</w>": 6509,
      "def": 6510,
      "Joseph</w>": 6511,
      "visiting</w>": 6512,
      "bid</w>": 6513,
      "GM</w>": 6514,
      "jo</w>": 6515,
      "Arizona</w>": 6516,
      ":heavy_check_mark:</w>": 6517,
      "tty</w>": 6518,
      "gam": 6519,
      "believes</w>": 6520,
      "Ian</w>": 6521,
      "fla": 6522,
      "tube</w>": 6523,
      "Museum</w>": 6524,
      "offensive</w>": 6525,
      "Win": 6526,
      "BREAKING</w>": 6527,
      "AR</w>": 6528,
      "writers</w>": 6529,
      "acc": 6530,
      "Gal": 6531,
      "powers</w>": 6532,
      "Alert</w>": 6533,
      "ational</w>": 6534,
      "joint</w>": 6535,
      "ashamed</w>": 6536,
      "Mountain</w>": 6537,
      "za": 6538,
      "Nor": 6539,
      "AH</w>": 6540,
      "fs</w>": 6541,
      "thrown</w>": 6542,
      "homeless</w>": 6543,
      "ass": 6544,
      "described</w>": 6545,
      "Foundation</w>": 6546,
      "Inside</w>": 6547,
      "candidates</w>": 6548,
      "sources</w>": 6549,
      "Aaron</w>": 6550,
      "Sound</w>": 6551,
      "Sport</w>": 6552,
      "gained</w>": 6553,
      "#o": 6554,
      "stadium</w>": 6555,
      "eve</w>": 6556,
      "Auto</w>": 6557,
      "selfish</w>": 6558,
      "Together</w>": 6559,
      "Fla": 6560,
      "mil": 6561,
      "asf</w>": 6562,
      "rolls</w>": 6563,
      "solve</w>": 6564,
      "Brother</w>": 6565,
      "revealed</w>": 6566,
      "CAR": 6567,
      "uck": 6568,
      "cla": 6569,
      "tra</w>": 6570,
      "incredibly</w>": 6571,
      "Sanders</w>": 6572,
      "E-": 6573,
      "bon": 6574,
      "har</w>": 6575,
      "handed</w>": 6576,
      "quotes</w>": 6577,
      "ology</w>": 6578,
      "Fre": 6579,
      "far": 6580,
      "races</w>": 6581,
      "exclusive</w>": 6582,
      "19th</w>": 6583,
      "NY": 6584,
      "Ger": 6585,
      "realised</w>": 6586,
      "0-": 6587,
      "ultimate</w>": 6588,
      "fraud</w>": 6589,
      "aya</w>": 6590,
      "EE": 6591,
      "stairs</w>": 6592,
      "raising</w>": 6593,
      "grace</w>": 6594,
      "Bye</w>": 6595,
      "protection</w>": 6596,
      "Daddy</w>": 6597,
      "Move</w>": 6598,
      "bull</w>": 6599,
      "unfortunately</w>": 6600,
      "Mario</w>": 6601,
      "allowing</w>": 6602,
      "Rs</w>": 6603,
      "faced</w>": 6604,
      "attached</w>": 6605,
      "residents</w>": 6606,
      "downtown</w>": 6607,
      "Basketball</w>": 6608,
      ";D</w>": 6609,
      "randomly</w>": 6610,
      "SL": 6611,
      "rooms</w>": 6612,
      "ease</w>": 6613,
      "#so": 6614,
      "#v": 6615,
      "TOP</w>": 6616,
      "wheel</w>": 6617,
      "dar": 6618,
      "TAKE</w>": 6619,
      "fails</w>": 6620,
      "weapons</w>": 6621,
      ":kissing_face_with_closed_eyes:</w>": 6622,
      "bts</w>": 6623,
      "wifi</w>": 6624,
      "dislike</w>": 6625,
      "Au": 6626,
      "Shame</w>": 6627,
      "Cash</w>": 6628,
      "particularly</w>": 6629,
      "Under": 6630,
      "Ash": 6631,
      "eyebrows</w>": 6632,
      "USB</w>": 6633,
      "Drop</w>": 6634,
      "Bitcoin</w>": 6635,
      "clothing</w>": 6636,
      "sec": 6637,
      "increased</w>": 6638,
      "Kate</w>": 6639,
      "entirely</w>": 6640,
      "aside</w>": 6641,
      "nut</w>": 6642,
      "Je": 6643,
      "variety</w>": 6644,
      "register</w>": 6645,
      "lion</w>": 6646,
      "PS": 6647,
      "MEAN</w>": 6648,
      "Pokemon</w>": 6649,
      "ack</w>": 6650,
      "label</w>": 6651,
      "Yellow</w>": 6652,
      "burger</w>": 6653,
      "ole</w>": 6654,
      "Kill</w>": 6655,
      "hunt</w>": 6656,
      "feedback</w>": 6657,
      "wn": 6658,
      "dra": 6659,
      "BI": 6660,
      "appointed</w>": 6661,
      "hw</w>": 6662,
      "5-": 6663,
      "penalty</w>": 6664,
      "poster</w>": 6665,
      "lad</w>": 6666,
      "fights</w>": 6667,
      "ii": 6668,
      "Shut</w>": 6669,
      "Lana</w>": 6670,
      "rapper</w>": 6671,
      "dawg</w>": 6672,
      "Loved</w>": 6673,
      "CS</w>": 6674,
      "6-": 6675,
      "MAR": 6676,
      "Governor</w>": 6677,
      "client</w>": 6678,
      "tru": 6679,
      "ization</w>": 6680,
      "Kinda</w>": 6681,
      "trap</w>": 6682,
      "1998</w>": 6683,
      "Bless</w>": 6684,
      "e_": 6685,
      "password</w>": 6686,
      "ignoring</w>": 6687,
      "NIGHT</w>": 6688,
      "coat</w>": 6689,
      "ree</w>": 6690,
      "sam": 6691,
      "racing</w>": 6692,
      "UC": 6693,
      "Hand": 6694,
      "addicted</w>": 6695,
      "CUTE</w>": 6696,
      "reduce</w>": 6697,
      "9-": 6698,
      "Huge</w>": 6699,
      "hal": 6700,
      "typical</w>": 6701,
      "Stream</w>": 6702,
      "Rey</w>": 6703,
      "wha": 6704,
      "sters</w>": 6705,
      "PP": 6706,
      "frame</w>": 6707,
      "Complete</w>": 6708,
      "chi</w>": 6709,
      "hidden</w>": 6710,
      "los</w>": 6711,
      "charger</w>": 6712,
      "beast</w>": 6713,
      "Teen</w>": 6714,
      "wasting</w>": 6715,
      "Britney</w>": 6716,
      "beside</w>": 6717,
      "chosen</w>": 6718,
      "tested</w>": 6719,
      "Ali</w>": 6720,
      ":pile_of_poo:</w>": 6721,
      "Express</w>": 6722,
      "Traffic</w>": 6723,
      "ight</w>": 6724,
      "kicking</w>": 6725,
      "á": 6726,
      "pushed</w>": 6727,
      "emoji</w>": 6728,
      "Gary</w>": 6729,
      "MM": 6730,
      "Limited</w>": 6731,
      "Iraq</w>": 6732,
      "burg</w>": 6733,
      "sted</w>": 6734,
      "affect</w>": 6735,
      "Wo": 6736,
      "lon": 6737,
      "#3": 6738,
      "replied</w>": 6739,
      "non": 6740,
      "IP</w>": 6741,
      "Camp</w>": 6742,
      "berg</w>": 6743,
      "sooooo</w>": 6744,
      "fries</w>": 6745,
      "ban": 6746,
      "ze": 6747,
      "ati</w>": 6748,
      "PRO": 6749,
      "awww</w>": 6750,
      "sunny</w>": 6751,
      "WHERE</w>": 6752,
      "HEY</w>": 6753,
      "dan</w>": 6754,
      "amp": 6755,
      "Fan": 6756,
      "reaching</w>": 6757,
      "PS4</w>": 6758,
      "Financial</w>": 6759,
      "Giveaway</w>": 6760,
      "ion": 6761,
      "Cas": 6762,
      "kissing</w>": 6763,
      "confirm</w>": 6764,
      "Gay</w>": 6765,
      ":smiling_face_with_3_hearts:</w>": 6766,
      "Ph": 6767,
      "farm</w>": 6768,
      "yelling</w>": 6769,
      "error</w>": 6770,
      "Eye</w>": 6771,
      "Cat": 6772,
      "Battery</w>": 6773,
      "dos</w>": 6774,
      "Del</w>": 6775,
      "elle</w>": 6776,
      "mainly</w>": 6777,
      "Inch</w>": 6778,
      "if": 6779,
      "rally</w>": 6780,
      "Dragon</w>": 6781,
      "plain</w>": 6782,
      "cloud</w>": 6783,
      "grey</w>": 6784,
      "tuned</w>": 6785,
      "stated</w>": 6786,
      "terrorist</w>": 6787,
      "whore</w>": 6788,
      "Duke</w>": 6789,
      "lan": 6790,
      "ez</w>": 6791,
      "Strong</w>": 6792,
      "ignored</w>": 6793,
      "Totally</w>": 6794,
      "hum": 6795,
      "entertainment</w>": 6796,
      "policies</w>": 6797,
      "Students</w>": 6798,
      "clients</w>": 6799,
      "Six</w>": 6800,
      "suspect</w>": 6801,
      "kh": 6802,
      "bad": 6803,
      "Told</w>": 6804,
      "od": 6805,
      "porno</w>": 6806,
      "lick</w>": 6807,
      "punk</w>": 6808,
      "dig</w>": 6809,
      "perspective</w>": 6810,
      "hahahahaha</w>": 6811,
      "UPDATE</w>": 6812,
      "claimed</w>": 6813,
      "HE": 6814,
      "constant</w>": 6815,
      "DR": 6816,
      "Audio</w>": 6817,
      "Contact</w>": 6818,
      "soldiers</w>": 6819,
      "Quick</w>": 6820,
      "tho": 6821,
      "BAD</w>": 6822,
      "O'": 6823,
      "estate</w>": 6824,
      ":registered:</w>": 6825,
      "officers</w>": 6826,
      "ira</w>": 6827,
      "lowkey</w>": 6828,
      "needa</w>": 6829,
      "Rich</w>": 6830,
      "salad</w>": 6831,
      "TONIGHT</w>": 6832,
      "Lebron</w>": 6833,
      "horny</w>": 6834,
      "Attack</w>": 6835,
      "#6": 6836,
      "Spurs</w>": 6837,
      "rings</w>": 6838,
      "ington</w>": 6839,
      "task</w>": 6840,
      "Crystal</w>": 6841,
      "34": 6842,
      "uu": 6843,
      "Tax</w>": 6844,
      "key": 6845,
      "fo</w>": 6846,
      "NI": 6847,
      "Ban": 6848,
      "hardcore</w>": 6849,
      "gging</w>": 6850,
      "belly</w>": 6851,
      "Kansas</w>": 6852,
      "Student</w>": 6853,
      "values</w>": 6854,
      "Moore</w>": 6855,
      "ously</w>": 6856,
      "Barcelona</w>": 6857,
      "nothin</w>": 6858,
      "YOU'RE</w>": 6859,
      "CC": 6860,
      "#Jobs</w>": 6861,
      "dem": 6862,
      "Eve</w>": 6863,
      "fee</w>": 6864,
      "Aw</w>": 6865,
      "oops</w>": 6866,
      "cm</w>": 6867,
      "suspended</w>": 6868,
      "SU</w>": 6869,
      "Islamic</w>": 6870,
      "wars</w>": 6871,
      "fy</w>": 6872,
      "blunt</w>": 6873,
      "Fort</w>": 6874,
      "asap</w>": 6875,
      "prime</w>": 6876,
      "Singapore</w>": 6877,
      "Race</w>": 6878,
      "peoples</w>": 6879,
      "Dun": 6880,
      "MAN": 6881,
      "iv": 6882,
      "WA</w>": 6883,
      "#ma": 6884,
      "BECAUSE</w>": 6885,
      "tes</w>": 6886,
      "Golf</w>": 6887,
      "rage</w>": 6888,
      "Sterling</w>": 6889,
      "context</w>": 6890,
      "ano": 6891,
      "quest</w>": 6892,
      "fuel</w>": 6893,
      "Men": 6894,
      "stra": 6895,
      "fest</w>": 6896,
      "explains</w>": 6897,
      "dang</w>": 6898,
      "loo": 6899,
      "selection</w>": 6900,
      "ero</w>": 6901,
      "banks</w>": 6902,
      "praise</w>": 6903,
      "assault</w>": 6904,
      "Machine</w>": 6905,
      "Die</w>": 6906,
      "reminded</w>": 6907,
      "#2": 6908,
      "BJP</w>": 6909,
      "carried</w>": 6910,
      "mines</w>": 6911,
      "ok": 6912,
      "represent</w>": 6913,
      "ego</w>": 6914,
      "bothered</w>": 6915,
      "blah</w>": 6916,
      "woo": 6917,
      "actress</w>": 6918,
      "pace</w>": 6919,
      "mb": 6920,
      "D:</w>": 6921,
      "IR": 6922,
      "#Re": 6923,
      "Drinking</w>": 6924,
      "ith</w>": 6925,
      "wat": 6926,
      "flu</w>": 6927,
      "tail</w>": 6928,
      "ech": 6929,
      "Empire</w>": 6930,
      "sand": 6931,
      "knees</w>": 6932,
      "alongside</w>": 6933,
      "Batman</w>": 6934,
      "covering</w>": 6935,
      "cy": 6936,
      "Institute</w>": 6937,
      "headphones</w>": 6938,
      "MC": 6939,
      "dj": 6940,
      "hahahah</w>": 6941,
      "deaths</w>": 6942,
      "champion</w>": 6943,
      "Kong</w>": 6944,
      "wee": 6945,
      "Howard</w>": 6946,
      "VS</w>": 6947,
      "SOME</w>": 6948,
      "Stupid</w>": 6949,
      "LAST</w>": 6950,
      "Less</w>": 6951,
      "hu</w>": 6952,
      "extreme</w>": 6953,
      "ali</w>": 6954,
      "HI": 6955,
      "sem": 6956,
      "#in": 6957,
      "Soul</w>": 6958,
      "ain</w>": 6959,
      "Current</w>": 6960,
      "attended</w>": 6961,
      "DAYS</w>": 6962,
      "enemies</w>": 6963,
      "discount</w>": 6964,
      "Big": 6965,
      "rated</w>": 6966,
      "jumping</w>": 6967,
      "electric</w>": 6968,
      "units</w>": 6969,
      "stunning</w>": 6970,
      "lly</w>": 6971,
      "Skin</w>": 6972,
      "Philippines</w>": 6973,
      "VIP</w>": 6974,
      "beg</w>": 6975,
      "uncomfortable</w>": 6976,
      "clo": 6977,
      "massage</w>": 6978,
      "Weight</w>": 6979,
      "causes</w>": 6980,
      "fuck": 6981,
      "HARD</w>": 6982,
      "lads</w>": 6983,
      "Cla": 6984,
      "Good": 6985,
      "meme</w>": 6986,
      "nuclear</w>": 6987,
      "Ted</w>": 6988,
      "ers": 6989,
      "MI</w>": 6990,
      "OT</w>": 6991,
      "spoken</w>": 6992,
      "Engineer</w>": 6993,
      "soup</w>": 6994,
      "Scottish</w>": 6995,
      "sweat</w>": 6996,
      "courage</w>": 6997,
      ":rose:</w>": 6998,
      "scoring</w>": 6999,
      ":dizzy:</w>": 7000,
      "act": 7001,
      "ENT</w>": 7002,
      "worldwide</w>": 7003,
      "iphone</w>": 7004,
      "golden</w>": 7005,
      "toy</w>": 7006,
      "Tim": 7007,
      "understood</w>": 7008,
      "Bruh</w>": 7009,
      "Mur": 7010,
      "AG": 7011,
      "Cold</w>": 7012,
      "su</w>": 7013,
      "temperature</w>": 7014,
      "searching</w>": 7015,
      "nephew</w>": 7016,
      "bud</w>": 7017,
      "Due</w>": 7018,
      "eats</w>": 7019,
      "Build</w>": 7020,
      "proven</w>": 7021,
      "Orlando</w>": 7022,
      "alist</w>": 7023,
      "#ask": 7024,
      "Danny</w>": 7025,
      "gre": 7026,
      "hh": 7027,
      "Iron</w>": 7028,
      "som": 7029,
      "Catch</w>": 7030,
      "Lauren</w>": 7031,
      "sk</w>": 7032,
      "booked</w>": 7033,
      "Cap": 7034,
      "bre": 7035,
      "Missing</w>": 7036,
      "sticks</w>": 7037,
      "ier</w>": 7038,
      "800</w>": 7039,
      "13th</w>": 7040,
      ":soccer_ball:</w>": 7041,
      "Nigerian</w>": 7042,
      "tit": 7043,
      "Modern</w>": 7044,
      "Fat</w>": 7045,
      "ana": 7046,
      "positions</w>": 7047,
      "56": 7048,
      "Cy": 7049,
      "ets</w>": 7050,
      "healthcare</w>": 7051,
      "kno": 7052,
      "Cancer</w>": 7053,
      "ino": 7054,
      "mid": 7055,
      "#Z": 7056,
      "deny</w>": 7057,
      "Sell</w>": 7058,
      "humanity</w>": 7059,
      "Dick</w>": 7060,
      "recognize</w>": 7061,
      "belt</w>": 7062,
      "atleast</w>": 7063,
      "header</w>": 7064,
      "Computer</w>": 7065,
      "gan": 7066,
      "yung</w>": 7067,
      "Ram": 7068,
      "Nintendo</w>": 7069,
      "Cheers</w>": 7070,
      "motion</w>": 7071,
      "Customer</w>": 7072,
      "Potter</w>": 7073,
      "Gri": 7074,
      "Pick</w>": 7075,
      "PR": 7076,
      "ising</w>": 7077,
      "1997</w>": 7078,
      "convince</w>": 7079,
      "Details</w>": 7080,
      "recovery</w>": 7081,
      "Grande</w>": 7082,
      "Kings</w>": 7083,
      "finishing</w>": 7084,
      "nic": 7085,
      "raw</w>": 7086,
      "Charlotte</w>": 7087,
      "TER</w>": 7088,
      "Shows</w>": 7089,
      "clouds</w>": 7090,
      "minor</w>": 7091,
      "del": 7092,
      "Des": 7093,
      "Between</w>": 7094,
      "logical</w>": 7095,
      "rat</w>": 7096,
      "mel": 7097,
      "hmmm</w>": 7098,
      "touched</w>": 7099,
      "strip</w>": 7100,
      "Bruce</w>": 7101,
      "nightmare</w>": 7102,
      "Assistant</w>": 7103,
      "Email</w>": 7104,
      "item</w>": 7105,
      "DEALS</w>": 7106,
      "structure</w>": 7107,
      "pre</w>": 7108,
      "ich</w>": 7109,
      "Hum": 7110,
      "St.</w>": 7111,
      "dev": 7112,
      "Tired</w>": 7113,
      "Eastern</w>": 7114,
      "bee": 7115,
      "dumbass</w>": 7116,
      "#co": 7117,
      "Register</w>": 7118,
      "#th": 7119,
      "freshman</w>": 7120,
      "Bids</w>": 7121,
      "way": 7122,
      "k-": 7123,
      "spreading</w>": 7124,
      "answered</w>": 7125,
      "Track</w>": 7126,
      "phase</w>": 7127,
      "spots</w>": 7128,
      "humble</w>": 7129,
      "#RT</w>": 7130,
      "aaaa": 7131,
      "Rob</w>": 7132,
      "tz</w>": 7133,
      "Mama</w>": 7134,
      "iron</w>": 7135,
      "Mount</w>": 7136,
      ":face_without_mouth:</w>": 7137,
      "gri": 7138,
      "HELL</w>": 7139,
      "rac": 7140,
      "awareness</w>": 7141,
      "iPod</w>": 7142,
      "sting</w>": 7143,
      "big": 7144,
      "brush</w>": 7145,
      "mask</w>": 7146,
      "causing</w>": 7147,
      "opposition</w>": 7148,
      "3:": 7149,
      "yards</w>": 7150,
      "Ya": 7151,
      "stopping</w>": 7152,
      "panel</w>": 7153,
      "Worst</w>": 7154,
      "illi": 7155,
      "blown</w>": 7156,
      "presentation</w>": 7157,
      "Ak": 7158,
      "Worth</w>": 7159,
      "#Mar": 7160,
      "Type</w>": 7161,
      "Military</w>": 7162,
      "xo</w>": 7163,
      "exposed</w>": 7164,
      "pts</w>": 7165,
      "Michelle</w>": 7166,
      "stare</w>": 7167,
      "couples</w>": 7168,
      "ade</w>": 7169,
      "kie</w>": 7170,
      "one-": 7171,
      "capable</w>": 7172,
      "immigration</w>": 7173,
      "e.": 7174,
      "Perhaps</w>": 7175,
      "Train</w>": 7176,
      "1996</w>": 7177,
      "ü": 7178,
      "Maria</w>": 7179,
      "carrying</w>": 7180,
      "hon": 7181,
      "crimes</w>": 7182,
      "sit": 7183,
      "march</w>": 7184,
      "#be": 7185,
      "folk</w>": 7186,
      "TE": 7187,
      "sadly</w>": 7188,
      "alternative</w>": 7189,
      "kan</w>": 7190,
      "AF": 7191,
      "Poland</w>": 7192,
      "fried</w>": 7193,
      "Walmart</w>": 7194,
      "UM</w>": 7195,
      "THING</w>": 7196,
      "chilling</w>": 7197,
      "relief</w>": 7198,
      "remaining</w>": 7199,
      "exists</w>": 7200,
      "scare</w>": 7201,
      "sta</w>": 7202,
      "Wood</w>": 7203,
      "providing</w>": 7204,
      "ITY</w>": 7205,
      "formula</w>": 7206,
      "Harris</w>": 7207,
      "Ave</w>": 7208,
      "Behind</w>": 7209,
      "Champions</w>": 7210,
      "Spirit</w>": 7211,
      "promises</w>": 7212,
      "sends</w>": 7213,
      "SP</w>": 7214,
      "dri": 7215,
      "celebrity</w>": 7216,
      "Katy</w>": 7217,
      "disaster</w>": 7218,
      "Saint</w>": 7219,
      "CP</w>": 7220,
      "stranger</w>": 7221,
      "o-": 7222,
      "root</w>": 7223,
      "toes</w>": 7224,
      "</w>": 7225,
      "Giants</w>": 7226,
      "Baseball</w>": 7227,
      "Chicken</w>": 7228,
      "kk</w>": 7229,
      "experiences</w>": 7230,
      "Thx</w>": 7231,
      "bitter</w>": 7232,
      "zi": 7233,
      "Lakers</w>": 7234,
      "troops</w>": 7235,
      "swing</w>": 7236,
      "concerns</w>": 7237,
      "chart</w>": 7238,
      "chy</w>": 7239,
      "ahaha</w>": 7240,
      "77": 7241,
      "volume</w>": 7242,
      "ble": 7243,
      "FL": 7244,
      "NJ</w>": 7245,
      "YO</w>": 7246,
      "Wrong</w>": 7247,
      "fiction</w>": 7248,
      "post": 7249,
      "Delhi</w>": 7250,
      "MI": 7251,
      "tattoos</w>": 7252,
      "Oregon</w>": 7253,
      "alo": 7254,
      "server</w>": 7255,
      "offended</w>": 7256,
      "thirsty</w>": 7257,
      "romantic</w>": 7258,
      "Executive</w>": 7259,
      "twins</w>": 7260,
      "intense</w>": 7261,
      "additional</w>": 7262,
      "Jane</w>": 7263,
      "ensure</w>": 7264,
      "Retweeted</w>": 7265,
      "larger</w>": 7266,
      "NOTHING</w>": 7267,
      "LeBron</w>": 7268,
      "Sim": 7269,
      "figures</w>": 7270,
      "tre": 7271,
      "Later</w>": 7272,
      "SAME</w>": 7273,
      "knw</w>": 7274,
      "weekends</w>": 7275,
      "HAD</w>": 7276,
      "Gro": 7277,
      "dam</w>": 7278,
      "Match</w>": 7279,
      "Hoo": 7280,
      "stolen</w>": 7281,
      "Jennifer</w>": 7282,
      "pun": 7283,
      "Amy</w>": 7284,
      "helpful</w>": 7285,
      "Female</w>": 7286,
      "RT": 7287,
      "Print</w>": 7288,
      "Denver</w>": 7289,
      "yn</w>": 7290,
      "Hemmings</w>": 7291,
      "Sitting</w>": 7292,
      "Gray</w>": 7293,
      "petty</w>": 7294,
      ":penguin:</w>": 7295,
      "None</w>": 7296,
      "om</w>": 7297,
      "Kal": 7298,
      "acceptable</w>": 7299,
      "Version</w>": 7300,
      "band": 7301,
      "A-": 7302,
      "Dean</w>": 7303,
      "mic</w>": 7304,
      "Interview</w>": 7305,
      "penis</w>": 7306,
      "sla": 7307,
      "Ocean</w>": 7308,
      "waited</w>": 7309,
      "LL": 7310,
      "lers</w>": 7311,
      "Bas": 7312,
      "#Deals</w>": 7313,
      "supports</w>": 7314,
      "---></w>": 7315,
      "entertaining</w>": 7316,
      "Love": 7317,
      "communities</w>": 7318,
      "approximately</w>": 7319,
      "Egypt</w>": 7320,
      "ond": 7321,
      "northern</w>": 7322,
      "irrelevant</w>": 7323,
      "Experience</w>": 7324,
      "UT": 7325,
      "louis</w>": 7326,
      "Committee</w>": 7327,
      "selected</w>": 7328,
      "reveals</w>": 7329,
      "cycle</w>": 7330,
      "ware</w>": 7331,
      "ron</w>": 7332,
      "flash</w>": 7333,
      "VO": 7334,
      "Marvel</w>": 7335,
      "kn": 7336,
      "AD</w>": 7337,
      "nite</w>": 7338,
      "drove</w>": 7339,
      "SF</w>": 7340,
      "Matthew</w>": 7341,
      "clown</w>": 7342,
      "Roll</w>": 7343,
      "TWO</w>": 7344,
      "Sick</w>": 7345,
      "ING": 7346,
      "Bad": 7347,
      "intended</w>": 7348,
      "Except</w>": 7349,
      "just": 7350,
      "tryin</w>": 7351,
      "Tweets</w>": 7352,
      "Rest</w>": 7353,
      "ran": 7354,
      "Dutch</w>": 7355,
      "Unfortunately</w>": 7356,
      "determined</w>": 7357,
      "documentary</w>": 7358,
      "OMFG</w>": 7359,
      "Parliament</w>": 7360,
      "Total</w>": 7361,
      "chasing</w>": 7362,
      "inches</w>": 7363,
      "lawyer</w>": 7364,
      "cancel</w>": 7365,
      ":anxious_face_with_sweat:</w>": 7366,
      "21": 7367,
      "NYT</w>": 7368,
      "vibes</w>": 7369,
      "Bed</w>": 7370,
      "ric": 7371,
      "rs</w>": 7372,
      "youu</w>": 7373,
      ":cat_face_with_tears_of_joy:</w>": 7374,
      "Bre": 7375,
      "appropriate</w>": 7376,
      "neighborhood</w>": 7377,
      "amateur</w>": 7378,
      "ain": 7379,
      "Mid": 7380,
      "tic": 7381,
      "10-": 7382,
      "eat": 7383,
      "Youth</w>": 7384,
      "outbreak</w>": 7385,
      "Lincoln</w>": 7386,
      "referring</w>": 7387,
      "craft</w>": 7388,
      "secure</w>": 7389,
      "CE</w>": 7390,
      "decades</w>": 7391,
      "Indiana</w>": 7392,
      "unable</w>": 7393,
      "Hel": 7394,
      "tap</w>": 7395,
      "genuine</w>": 7396,
      "hat": 7397,
      "#hiring</w>": 7398,
      "Jewelry</w>": 7399,
      "screwed</w>": 7400,
      "�</w>": 7401,
      "#Trump": 7402,
      "retweets</w>": 7403,
      "Indonesia</w>": 7404,
      "stealing</w>": 7405,
      "tennis</w>": 7406,
      "Argentina</w>": 7407,
      "Works</w>": 7408,
      "kicks</w>": 7409,
      "Cafe</w>": 7410,
      "Elizabeth</w>": 7411,
      "²</w>": 7412,
      "quiz</w>": 7413,
      "ao</w>": 7414,
      "swag</w>": 7415,
      "jumped</w>": 7416,
      "meets</w>": 7417,
      "XL</w>": 7418,
      "audio</w>": 7419,
      "wer": 7420,
      "Touch</w>": 7421,
      "TELL</w>": 7422,
      "Tea</w>": 7423,
      "gue</w>": 7424,
      "Kyle</w>": 7425,
      "plants</w>": 7426,
      "ren": 7427,
      "bucks</w>": 7428,
      "stations</w>": 7429,
      "vin</w>": 7430,
      "dreaming</w>": 7431,
      "yl": 7432,
      "vers</w>": 7433,
      "XXX</w>": 7434,
      "gig</w>": 7435,
      "Merry</w>": 7436,
      "lap</w>": 7437,
      "ding": 7438,
      "collect</w>": 7439,
      "esh</w>": 7440,
      "Simon</w>": 7441,
      "nor": 7442,
      "bust</w>": 7443,
      "AA</w>": 7444,
      "Brothers</w>": 7445,
      "arrive</w>": 7446,
      "sang</w>": 7447,
      "neighbors</w>": 7448,
      "#4": 7449,
      "sensitive</w>": 7450,
      "defeated</w>": 7451,
      "suits</w>": 7452,
      "zo</w>": 7453,
      "arrest</w>": 7454,
      "familiar</w>": 7455,
      "cable</w>": 7456,
      "subscribe</w>": 7457,
      "mon</w>": 7458,
      "vibe</w>": 7459,
      "Electric</w>": 7460,
      "iness</w>": 7461,
      "Anna</w>": 7462,
      "PI": 7463,
      "pose</w>": 7464,
      "depressing</w>": 7465,
      "aircraft</w>": 7466,
      "West": 7467,
      "native</w>": 7468,
      "Ultimate</w>": 7469,
      "admire</w>": 7470,
      "Ppl</w>": 7471,
      "identity</w>": 7472,
      "Stadium</w>": 7473,
      ":balloon:</w>": 7474,
      "actors</w>": 7475,
      "Carter</w>": 7476,
      "pillow</w>": 7477,
      "WS</w>": 7478,
      "oooo": 7479,
      "kay</w>": 7480,
      "Born</w>": 7481,
      "Parents</w>": 7482,
      "celebration</w>": 7483,
      "conservative</w>": 7484,
      "cutie</w>": 7485,
      "Boss</w>": 7486,
      "Vine</w>": 7487,
      "your": 7488,
      "fridge</w>": 7489,
      "Bla": 7490,
      "Jake</w>": 7491,
      "Dor": 7492,
      "Clear</w>": 7493,
      "succeed</w>": 7494,
      "beard</w>": 7495,
      "HR</w>": 7496,
      "Metal</w>": 7497,
      "Ps</w>": 7498,
      "READ</w>": 7499,
      "enn": 7500,
      "emp": 7501,
      "YEAR</w>": 7502,
      "promotion</w>": 7503,
      "complicated</w>": 7504,
      "deck</w>": 7505,
      "ul</w>": 7506,
      "toe</w>": 7507,
      "Civil</w>": 7508,
      "Dr": 7509,
      "Vs</w>": 7510,
      "sooner</w>": 7511,
      "Democrat</w>": 7512,
      "#Al": 7513,
      "11/": 7514,
      "Fantasy</w>": 7515,
      "eeee": 7516,
      "Emma</w>": 7517,
      "Lea": 7518,
      "Pope</w>": 7519,
      "Warriors</w>": 7520,
      "ako</w>": 7521,
      "txt</w>": 7522,
      "Rec": 7523,
      "equipment</w>": 7524,
      "babes</w>": 7525,
      "throws</w>": 7526,
      "experts</w>": 7527,
      "drives</w>": 7528,
      "physically</w>": 7529,
      "ILY</w>": 7530,
      "funeral</w>": 7531,
      "guessing</w>": 7532,
      "4,": 7533,
      "SHA": 7534,
      "wealth</w>": 7535,
      "SHOW</w>": 7536,
      "visited</w>": 7537,
      "Walker</w>": 7538,
      "aging</w>": 7539,
      "ele": 7540,
      "defending</w>": 7541,
      "fitness</w>": 7542,
      "theyre</w>": 7543,
      "02": 7544,
      "nam": 7545,
      ":glowing_star:</w>": 7546,
      "Capital</w>": 7547,
      "tel": 7548,
      "Author</w>": 7549,
      "ILYSM</w>": 7550,
      "may": 7551,
      "#new": 7552,
      "spare</w>": 7553,
      "Tom": 7554,
      "burned</w>": 7555,
      "#team": 7556,
      "smash</w>": 7557,
      "AI</w>": 7558,
      "sion</w>": 7559,
      "mfs</w>": 7560,
      "1/": 7561,
      "Ashley</w>": 7562,
      "wana</w>": 7563,
      "Exclusive</w>": 7564,
      "IVE</w>": 7565,
      "RS</w>": 7566,
      "couldnt</w>": 7567,
      "INE</w>": 7568,
      "peak</w>": 7569,
      "ila</w>": 7570,
      "hol": 7571,
      "Lucky</w>": 7572,
      "Brooklyn</w>": 7573,
      "pleased</w>": 7574,
      "Target</w>": 7575,
      "Create</w>": 7576,
      "trynna</w>": 7577,
      "aga": 7578,
      "Apply</w>": 7579,
      "PER": 7580,
      "Facts</w>": 7581,
      "require</w>": 7582,
      "challenges</w>": 7583,
      "shar": 7584,
      "Hamilton</w>": 7585,
      "marathon</w>": 7586,
      "humor</w>": 7587,
      "Prod</w>": 7588,
      "skill</w>": 7589,
      "boxes</w>": 7590,
      "Robin</w>": 7591,
      "operations</w>": 7592,
      "80": 7593,
      "cricket</w>": 7594,
      "associated</w>": 7595,
      "Wishing</w>": 7596,
      "height</w>": 7597,
      "Professional</w>": 7598,
      "sing": 7599,
      "Pizza</w>": 7600,
      "keeper</w>": 7601,
      "Journal</w>": 7602,
      "Billy</w>": 7603,
      "nerves</w>": 7604,
      "violent</w>": 7605,
      "Kindle</w>": 7606,
      "#music</w>": 7607,
      "situations</w>": 7608,
      "breathing</w>": 7609,
      "french</w>": 7610,
      "DJ": 7611,
      "favorites</w>": 7612,
      "Safe</w>": 7613,
      "Jeremy</w>": 7614,
      "Lovely</w>": 7615,
      "receiving</w>": 7616,
      "cap": 7617,
      "alert</w>": 7618,
      "Hmmm</w>": 7619,
      "buildings</w>": 7620,
      "rel": 7621,
      "trains</w>": 7622,
      "Library</w>": 7623,
      "spin</w>": 7624,
      "Kiss</w>": 7625,
      "sive</w>": 7626,
      "#st": 7627,
      "GAME</w>": 7628,
      "pops</w>": 7629,
      "Jews</w>": 7630,
      "Gun</w>": 7631,
      "ph</w>": 7632,
      "treating</w>": 7633,
      "Problems</w>": 7634,
      "presented</w>": 7635,
      "harm</w>": 7636,
      "incident</w>": 7637,
      "poverty</w>": 7638,
      "nn</w>": 7639,
      "Everytime</w>": 7640,
      "#best": 7641,
      "RN</w>": 7642,
      "dam": 7643,
      "1995</w>": 7644,
      "Software</w>": 7645,
      "SD</w>": 7646,
      "ICE</w>": 7647,
      "ining</w>": 7648,
      "Vo": 7649,
      "vis": 7650,
      "releases</w>": 7651,
      "#Mo": 7652,
      "abortion</w>": 7653,
      ":zzz:</w>": 7654,
      "counts</w>": 7655,
      "Rights</w>": 7656,
      "Baltimore</w>": 7657,
      "#Ma": 7658,
      "Philadelphia</w>": 7659,
      "Cloud</w>": 7660,
      "pays</w>": 7661,
      "Fer": 7662,
      "#BB": 7663,
      "SN": 7664,
      "rank</w>": 7665,
      "gaming</w>": 7666,
      "screw</w>": 7667,
      "Dev": 7668,
      "Le</w>": 7669,
      "cri": 7670,
      "fallen</w>": 7671,
      "shaking</w>": 7672,
      "forth</w>": 7673,
      "ath</w>": 7674,
      "Jessica</w>": 7675,
      "Gov</w>": 7676,
      "s_": 7677,
      "1994</w>": 7678,
      "kes": 7679,
      "cure</w>": 7680,
      "junior</w>": 7681,
      "ach</w>": 7682,
      "forest</w>": 7683,
      "thx</w>": 7684,
      "Driving</w>": 7685,
      "hundreds</w>": 7686,
      "comin</w>": 7687,
      "blessings</w>": 7688,
      "playin</w>": 7689,
      "Dan": 7690,
      "Excellent</w>": 7691,
      "Pra": 7692,
      "pig</w>": 7693,
      "CM</w>": 7694,
      "pc</w>": 7695,
      "voices</w>": 7696,
      ":trade_mark:</w>": 7697,
      "Close</w>": 7698,
      "reveal</w>": 7699,
      "worship</w>": 7700,
      "Mar</w>": 7701,
      "Pen": 7702,
      "Luc": 7703,
      "fame</w>": 7704,
      "Ebay</w>": 7705,
      "Anniversary</w>": 7706,
      "MADE</w>": 7707,
      "tops</w>": 7708,
      "Ag": 7709,
      ":wrapped_gift:</w>": 7710,
      "WANNA</w>": 7711,
      "knife</w>": 7712,
      "od</w>": 7713,
      "linked</w>": 7714,
      "Alan</w>": 7715,
      "Ear": 7716,
      "failing</w>": 7717,
      "specifically</w>": 7718,
      "salt</w>": 7719,
      "cookie</w>": 7720,
      "Pur": 7721,
      "ai": 7722,
      "council</w>": 7723,
      "slip</w>": 7724,
      "Son": 7725,
      "markets</w>": 7726,
      "bottles</w>": 7727,
      "2:": 7728,
      "decides</w>": 7729,
      "Christians</w>": 7730,
      "Antonio</w>": 7731,
      "Sand": 7732,
      "140</w>": 7733,
      "freezing</w>": 7734,
      "Der": 7735,
      "discover</w>": 7736,
      "eeeee</w>": 7737,
      "communication</w>": 7738,
      "Hum</w>": 7739,
      "Iowa</w>": 7740,
      "shoutout</w>": 7741,
      "lim": 7742,
      "method</w>": 7743,
      "habit</w>": 7744,
      "Jan": 7745,
      "Jerry</w>": 7746,
      "Flash</w>": 7747,
      "Sm": 7748,
      "OKAY</w>": 7749,
      "prior</w>": 7750,
      "ray</w>": 7751,
      "Eagles</w>": 7752,
      "Por": 7753,
      "Soccer</w>": 7754,
      "menu</w>": 7755,
      "Anti-": 7756,
      "compete</w>": 7757,
      "29.": 7758,
      "michael</w>": 7759,
      "SAID</w>": 7760,
      "invest</w>": 7761,
      "Rangers</w>": 7762,
      "gap</w>": 7763,
      "Election</w>": 7764,
      "agreement</w>": 7765,
      "lists</w>": 7766,
      "Anybody</w>": 7767,
      "Rio</w>": 7768,
      "ico</w>": 7769,
      "kinds</w>": 7770,
      "Movies</w>": 7771,
      "Content</w>": 7772,
      "costume</w>": 7773,
      "mal</w>": 7774,
      "holes</w>": 7775,
      "ANT</w>": 7776,
      "ined</w>": 7777,
      "minimum</w>": 7778,
      "hmu</w>": 7779,
      "uu</w>": 7780,
      "pic": 7781,
      "TRA": 7782,
      "Av": 7783,
      "an-": 7784,
      "extended</w>": 7785,
      "secrets</w>": 7786,
      "vine</w>": 7787,
      "pretending</w>": 7788,
      "loses</w>": 7789,
      "Brady</w>": 7790,
      "Kentucky</w>": 7791,
      "capacity</w>": 7792,
      "Ass": 7793,
      "mac": 7794,
      "FU": 7795,
      "Straight</w>": 7796,
      "phrase</w>": 7797,
      "BETTER</w>": 7798,
      "yoga</w>": 7799,
      "isa</w>": 7800,
      "bes</w>": 7801,
      "News": 7802,
      "mah</w>": 7803,
      "touching</w>": 7804,
      "KE": 7805,
      "MM</w>": 7806,
      "niece</w>": 7807,
      "retired</w>": 7808,
      "surface</w>": 7809,
      "auto</w>": 7810,
      "Rev": 7811,
      "smooth</w>": 7812,
      "crib</w>": 7813,
      "stri": 7814,
      "Fitness</w>": 7815,
      "bie</w>": 7816,
      "CHA": 7817,
      "pointless</w>": 7818,
      ":exclamation_mark:</w>": 7819,
      "Rachel</w>": 7820,
      "Dem": 7821,
      "Started</w>": 7822,
      "impressive</w>": 7823,
      "arts</w>": 7824,
      "dramatic</w>": 7825,
      "Speed</w>": 7826,
      "fools</w>": 7827,
      "58": 7828,
      "Mens</w>": 7829,
      "#Love": 7830,
      "az": 7831,
      "UG": 7832,
      "eastern</w>": 7833,
      "Avenue</w>": 7834,
      "newest</w>": 7835,
      "sel</w>": 7836,
      "payment</w>": 7837,
      "HQ</w>": 7838,
      "#ch": 7839,
      "DD": 7840,
      "ranked</w>": 7841,
      "Eyes</w>": 7842,
      "ppin</w>": 7843,
      "designer</w>": 7844,
      "thou</w>": 7845,
      "TOMORROW</w>": 7846,
      "Wife</w>": 7847,
      "engaged</w>": 7848,
      "Industry</w>": 7849,
      "rant</w>": 7850,
      "Lead</w>": 7851,
      "theatre</w>": 7852,
      "Lovato</w>": 7853,
      "IF": 7854,
      ":new_moon_face:</w>": 7855,
      "light": 7856,
      "Heaven</w>": 7857,
      "script</w>": 7858,
      "FOR": 7859,
      "Illinois</w>": 7860,
      "vi</w>": 7861,
      "Rise</w>": 7862,
      "32": 7863,
      "VER": 7864,
      "ries</w>": 7865,
      "Tree</w>": 7866,
      "Cards</w>": 7867,
      "filling</w>": 7868,
      "mothers</w>": 7869,
      "worker</w>": 7870,
      "commit</w>": 7871,
      "Tal": 7872,
      ":|</w>": 7873,
      "Wanted</w>": 7874,
      "gy</w>": 7875,
      "FULL</w>": 7876,
      "lmaooo</w>": 7877,
      "Rep": 7878,
      "SW</w>": 7879,
      "feelin</w>": 7880,
      "Snapchat</w>": 7881,
      "dah</w>": 7882,
      "contacts</w>": 7883,
      "Omega</w>": 7884,
      ":pizza:</w>": 7885,
      "Core</w>": 7886,
      "Grace</w>": 7887,
      "washing</w>": 7888,
      "Storm</w>": 7889,
      "custom</w>": 7890,
      "Cable</w>": 7891,
      "packing</w>": 7892,
      "Shot</w>": 7893,
      "500": 7894,
      "politician</w>": 7895,
      "SJ": 7896,
      "ida</w>": 7897,
      "⁦</w>": 7898,
      "Oscar</w>": 7899,
      "essential</w>": 7900,
      "previously</w>": 7901,
      "Officer</w>": 7902,
      "bits</w>": 7903,
      "gon": 7904,
      "dor": 7905,
      "claiming</w>": 7906,
      "SONG</w>": 7907,
      "Anderson</w>": 7908,
      "→</w>": 7909,
      "fied</w>": 7910,
      "witness</w>": 7911,
      "nominated</w>": 7912,
      "Minecraft</w>": 7913,
      "Secretary</w>": 7914,
      "Port</w>": 7915,
      "Record</w>": 7916,
      "Enough</w>": 7917,
      "imo</w>": 7918,
      "Bru": 7919,
      "corporate</w>": 7920,
      ":hot_beverage:</w>": 7921,
      "attending</w>": 7922,
      "BUY</w>": 7923,
      "bay</w>": 7924,
      "ek": 7925,
      "Fact</w>": 7926,
      "graphic</w>": 7927,
      "eli": 7928,
      "Uber</w>": 7929,
      "Bay": 7930,
      "moral</w>": 7931,
      "pets</w>": 7932,
      "presidential</w>": 7933,
      "san</w>": 7934,
      "#Free": 7935,
      "dom</w>": 7936,
      "united</w>": 7937,
      "returning</w>": 7938,
      "ful": 7939,
      "drank</w>": 7940,
      "1990</w>": 7941,
      "CK</w>": 7942,
      "tar</w>": 7943,
      "drake</w>": 7944,
      "Ma</w>": 7945,
      "rarely</w>": 7946,
      "Freedom</w>": 7947,
      "ala": 7948,
      "replies</w>": 7949,
      "liam</w>": 7950,
      "Eating</w>": 7951,
      "rite</w>": 7952,
      "existing</w>": 7953,
      "Att": 7954,
      ":basketball:</w>": 7955,
      "Giving</w>": 7956,
      "Play": 7957,
      "chillin</w>": 7958,
      "unlike</w>": 7959,
      "intelligent</w>": 7960,
      ":zany_face:</w>": 7961,
      "craving</w>": 7962,
      "END</w>": 7963,
      "get": 7964,
      "pub</w>": 7965,
      "boy": 7966,
      "insult</w>": 7967,
      "ld</w>": 7968,
      "wallet</w>": 7969,
      "foundation</w>": 7970,
      "duck</w>": 7971,
      "excuses</w>": 7972,
      "dresses</w>": 7973,
      "iting</w>": 7974,
      "deeply</w>": 7975,
      "doll</w>": 7976,
      "compliment</w>": 7977,
      "Gun": 7978,
      "Whoever</w>": 7979,
      "57": 7980,
      "Estate</w>": 7981,
      "comp": 7982,
      "01:": 7983,
      "fur": 7984,
      "titles</w>": 7985,
      "username</w>": 7986,
      "signal</w>": 7987,
      "Han": 7988,
      "THAN</w>": 7989,
      "10,000</w>": 7990,
      "Edward</w>": 7991,
      "hacked</w>": 7992,
      "Bat": 7993,
      "Home": 7994,
      "odds</w>": 7995,
      "Den": 7996,
      "#Bo": 7997,
      "YS</w>": 7998,
      "exit</w>": 7999,
      "entitled</w>": 8000,
      "nar": 8001,
      "somethin</w>": 8002,
      "toys</w>": 8003,
      "90s</w>": 8004,
      "#ALDUB": 8005,
      "mid-": 8006,
      "Sel": 8007,
      "wrestling</w>": 8008,
      "4:": 8009,
      "Leader</w>": 8010,
      "Tur": 8011,
      "ex-": 8012,
      "chicks</w>": 8013,
      "pit</w>": 8014,
      "WHITE</w>": 8015,
      "Bus</w>": 8016,
      "Met</w>": 8017,
      "ens": 8018,
      "Hoping</w>": 8019,
      "Phoenix</w>": 8020,
      "hunting</w>": 8021,
      "childish</w>": 8022,
      "fears</w>": 8023,
      "toxic</w>": 8024,
      "3.5</w>": 8025,
      "reads</w>": 8026,
      "Chocolate</w>": 8027,
      "Res": 8028,
      "applied</w>": 8029,
      "Lisa</w>": 8030,
      "Stick</w>": 8031,
      "Xmas</w>": 8032,
      "treats</w>": 8033,
      "dust</w>": 8034,
      "Spears</w>": 8035,
      "Theatre</w>": 8036,
      "ement</w>": 8037,
      "abs</w>": 8038,
      "scheduled</w>": 8039,
      "Feat</w>": 8040,
      "biz</w>": 8041,
      "#un": 8042,
      "fishing</w>": 8043,
      "danger</w>": 8044,
      "bas": 8045,
      "Forest</w>": 8046,
      "bubble</w>": 8047,
      "laundry</w>": 8048,
      "HAHAHAHA</w>": 8049,
      "Az": 8050,
      "waves</w>": 8051,
      "sucking</w>": 8052,
      "Wireless</w>": 8053,
      "ath": 8054,
      "DONE</w>": 8055,
      "drew</w>": 8056,
      "remained</w>": 8057,
      "Jonathan</w>": 8058,
      "web": 8059,
      "hottest</w>": 8060,
      "Person</w>": 8061,
      "Atlantic</w>": 8062,
      "hur": 8063,
      "TV": 8064,
      "Quote</w>": 8065,
      "chip</w>": 8066,
      "boi</w>": 8067,
      "expectations</w>": 8068,
      "operation</w>": 8069,
      "inger</w>": 8070,
      "oooo</w>": 8071,
      "amo</w>": 8072,
      "tting</w>": 8073,
      "Wire</w>": 8074,
      "1992</w>": 8075,
      "Oklahoma</w>": 8076,
      "Ontario</w>": 8077,
      "#1": 8078,
      "twist</w>": 8079,
      "Kenya</w>": 8080,
      "proved</w>": 8081,
      "ple": 8082,
      "gt</w>": 8083,
      "NEXT</w>": 8084,
      "eness</w>": 8085,
      "mad": 8086,
      "MB</w>": 8087,
      "gos</w>": 8088,
      "Greece</w>": 8089,
      "Russell</w>": 8090,
      "SOMEONE</w>": 8091,
      "upgrade</w>": 8092,
      "pol": 8093,
      "all-": 8094,
      "Hunter</w>": 8095,
      "Hong</w>": 8096,
      "CU": 8097,
      "rescue</w>": 8098,
      "mac</w>": 8099,
      "nearby</w>": 8100,
      "bass</w>": 8101,
      "combined</w>": 8102,
      "ft": 8103,
      "Latin</w>": 8104,
      "urge</w>": 8105,
      "201": 8106,
      "graduated</w>": 8107,
      "ignorance</w>": 8108,
      "GE": 8109,
      "Mayor</w>": 8110,
      "sj": 8111,
      "ancient</w>": 8112,
      "flies</w>": 8113,
      "dot</w>": 8114,
      "THEIR</w>": 8115,
      "sheet</w>": 8116,
      "finale</w>": 8117,
      "cr</w>": 8118,
      "sector</w>": 8119,
      "#KCA</w>": 8120,
      "FR": 8121,
      "ays</w>": 8122,
      "rem": 8123,
      "#Best": 8124,
      "Hawaii</w>": 8125,
      "hangout</w>": 8126,
      "fac": 8127,
      "Bear</w>": 8128,
      "10/": 8129,
      "elite</w>": 8130,
      "lovers</w>": 8131,
      "worrying</w>": 8132,
      "Wine</w>": 8133,
      "Commission</w>": 8134,
      "creation</w>": 8135,
      "Aye</w>": 8136,
      "eman</w>": 8137,
      "ele</w>": 8138,
      "refused</w>": 8139,
      "Thoughts</w>": 8140,
      "Paper</w>": 8141,
      "Performance</w>": 8142,
      "OU": 8143,
      "cas": 8144,
      "watches</w>": 8145,
      "blew</w>": 8146,
      "Jamie</w>": 8147,
      "wolf</w>": 8148,
      "Picture</w>": 8149,
      "survey</w>": 8150,
      "cultural</w>": 8151,
      "awarded</w>": 8152,
      "Govt</w>": 8153,
      "ture</w>": 8154,
      "announcement</w>": 8155,
      "numerous</w>": 8156,
      "⃣</w>": 8157,
      "recipe</w>": 8158,
      "solutions</w>": 8159,
      "Dem</w>": 8160,
      "hea": 8161,
      "Ken": 8162,
      "Cream</w>": 8163,
      "see": 8164,
      "MIN": 8165,
      "messing</w>": 8166,
      "tribute</w>": 8167,
      "Generation</w>": 8168,
      "post-": 8169,
      "#Im": 8170,
      "cheers</w>": 8171,
      "16th</w>": 8172,
      "Rt</w>": 8173,
      "rides</w>": 8174,
      "Seen</w>": 8175,
      "Amen</w>": 8176,
      "eal</w>": 8177,
      "yyyy</w>": 8178,
      "SEO</w>": 8179,
      "miserable</w>": 8180,
      "Concert</w>": 8181,
      "HUGE</w>": 8182,
      "bones</w>": 8183,
      "importance</w>": 8184,
      "hung</w>": 8185,
      "Sky": 8186,
      "Yahoo</w>": 8187,
      "dic": 8188,
      "DIE</w>": 8189,
      "requires</w>": 8190,
      "chemistry</w>": 8191,
      "hn</w>": 8192,
      "kindness</w>": 8193,
      "shops</w>": 8194,
      "#We": 8195,
      "strikes</w>": 8196,
      "Minnesota</w>": 8197,
      "Kardashian</w>": 8198,
      "producer</w>": 8199,
      "Murray</w>": 8200,
      "nun</w>": 8201,
      "uniform</w>": 8202,
      "Campaign</w>": 8203,
      "WERE</w>": 8204,
      "pas": 8205,
      "exhausted</w>": 8206,
      "lifestyle</w>": 8207,
      "xoxo</w>": 8208,
      "Pandora</w>": 8209,
      "#e": 8210,
      "POTUS</w>": 8211,
      "mann</w>": 8212,
      "Fantastic</w>": 8213,
      "ome": 8214,
      "was": 8215,
      "pla": 8216,
      "Teacher</w>": 8217,
      "blanket</w>": 8218,
      ":white_medium_star:</w>": 8219,
      "Lam": 8220,
      "files</w>": 8221,
      "Sab": 8222,
      "piano</w>": 8223,
      "Jam": 8224,
      "bun": 8225,
      "enti": 8226,
      "organized</w>": 8227,
      "Cyrus</w>": 8228,
      "attacking</w>": 8229,
      "fifth</w>": 8230,
      "glory</w>": 8231,
      "#Co": 8232,
      "That": 8233,
      "Senator</w>": 8234,
      "weapon</w>": 8235,
      "❁</w>": 8236,
[...]
